{
  "Such": 16678,
  "for": 1640,
  "Ġbringing": 6079,
  "Ġmud": 17492,
  "Ġperk": 34407,
  "ĠHarry": 5850,
  "ĠPrague": 37079,
  "iso": 26786,
  "net": 3262,
  "ĠRAND": 46920,
  "ĠAna": 17639,
  "Ws": 46456,
  "metadata": 38993,
  "150": 8628,
  "ĠUses": 36965,
  "Ġus": 514,
  "ĠMens": 43103,
  "ĠPoles": 45631,
  "Ġattributable": 29816,
  "Ġsubpoen": 23801,
  "Ġmotivational": 49066,
  "Ġsurv": 3343,
  "children": 17197,
  "Ġtransportation": 9358,
  "ĠVen": 9932,
  "LCS": 29814,
  "572": 48724,
  "Ġlasers": 34628,
  "ĠOuter": 35868,
  "Ġbu": 809,
  "Ġ380": 29101,
  "ĠENG": 36924,
  "Ġtied": 8165,
  "Ġrobber": 29979,
  "ĠThank": 6952,
  "Ġ<-": 24293,
  "ĠKrishna": 38594,
  "iator": 38585,
  "ĠAround": 16824,
  "Ġhats": 23910,
  "stores": 43409,
  "output": 22915,
  "Ġspirit": 4437,
  "Ġdifferentiated": 47543,
  "Ġfant": 5113,
  "adan": 29157,
  "opping": 33307,
  "ractions": 37810,
  "ittees": 13263,
  "Ġimb": 33966,
  "Ġheats": 37876,
  "Ġgunshots": 46828,
  "ĠDenise": 43596,
  "ĠFranco": 22198,
  "Adapter": 47307,
  "borgh": 49870,
  "FX": 17213,
  "ĠHeart": 8894,
  "ints": 29503,
  "Ġappreci": 5763,
  "ĠDestroyer": 30414,
  "Ġcommunal": 26757,
  "Ġrenewables": 36351,
  "Ġunborn": 36172,
  "ental": 2470,
  "effic": 24531,
  "ares": 3565,
  "Ġmonuments": 28814,
  "ĠMalaysian": 30031,
  "Ġkicked": 12165,
  "ĠSlow": 19054,
  "Ġcontraceptives": 45295,
  "Ġsober": 24281,
  "Ġrough": 5210,
  "miah": 35029,
  "oba": 19981,
  "Ġurgent": 18039,
  "Ġcodes": 12416,
  "ĠTri": 7563,
  "ĠLag": 21003,
  "Ġstemmed": 44997,
  "Ġwhore": 40107,
  "ĠReview": 6602,
  "utherford": 46923,
  "07": 2998,
  "Ġclim": 5424,
  "Ġconsiderably": 15394,
  "ĠBB": 12597,
  "exec": 18558,
  "Ġtranslating": 34665,
  "Ġnoble": 15581,
  "ĠDominic": 36401,
  "ĠDept": 28786,
  "Ġsmokers": 24109,
  "433": 42117,
  "ĠChristians": 9316,
  "Ġbleak": 30942,
  "Ġcompassionate": 32533,
  "Ġburner": 46027,
  "olation": 21417,
  "status": 13376,
  "Ġcards": 4116,
  "ĠFamilies": 25813,
  "ĠHybrid": 29481,
  "rongh": 36670,
  "Ġpopup": 46207,
  "ĠHunting": 22059,
  "47": 2857,
  "IBLE": 34563,
  "Ġowned": 6898,
  ".(": 12195,
  "Ġbetting": 22908,
  "Ġsar": 29008,
  "Ġpresident": 1893,
  "Python": 37906,
  "Ġroundup": 48390,
  "PAR": 27082,
  "92": 5892,
  "Ġpersist": 21160,
  "ette": 5857,
  "go": 2188,
  "Ġregulating": 26379,
  "Ġbath": 7837,
  "ĠAN": 3537,
  "ĠDrops": 41692,
  "Ġschedule": 7269,
  "Ġscreenshots": 23322,
  "ĠBorough": 48114,
  "ohan": 22436,
  "ĠTools": 20003,
  "ĠCav": 19931,
  "ulate": 5039,
  "Ġprescribe": 32651,
  "stated": 21989,
  "Ġinsightful": 41696,
  "Ġfemales": 12366,
  "Ġathleticism": 35159,
  "].\"": 29225,
  "Ġambul": 18907,
  "azines": 15742,
  "ĠIndonesian": 28259,
  "Ġsurveyed": 20840,
  "ĠNottingham": 39802,
  "uci": 42008,
  "Ġangle": 9848,
  "lived": 24489,
  "ĠReload": 37653,
  "ĠCro": 9325,
  "its": 896,
  "Ġarchaic": 40435,
  "urrencies": 28018,
  "Ġidentify": 5911,
  "Ġshaving": 38013,
  "ĠBrexit": 11435,
  "houses": 20089,
  "ĠXCOM": 49358,
  "Ġdisproportion": 18717,
  "};": 19629,
  "Ġwins": 7864,
  "Ġevenly": 21894,
  "Ġmalls": 43890,
  "ĠManga": 27024,
  "OOD": 22808,
  "ĠSv": 44343,
  "Ġimpacting": 40288,
  "Ġsub": 850,
  "ĠPilot": 21697,
  "Ġ465": 49669,
  ".ï¿½": 40670,
  "ĠDug": 27436,
  "Ġcontin": 1261,
  "avi": 15820,
  "ĠED": 8392,
  "Dim": 29271,
  "ĠRouter": 48538,
  "ophon": 48982,
  "itute": 3678,
  "ĠMet": 3395,
  "bane": 20235,
  "Ġphysique": 48226,
  "ĠNept": 21974,
  "ĠDOI": 40722,
  "Tele": 31709,
  "ĠConsult": 21651,
  "ĠDevon": 36889,
  "æĢ": 45250,
  "Customer": 44939,
  "ĠMitchell": 14526,
  "Ġmanaged": 5257,
  "ĠLisp": 38593,
  "ordial": 31223,
  "Ġgeometry": 22939,
  "Ġcounseling": 21951,
  "Ġbinary": 13934,
  "Secretary": 38541,
  "uned": 40881,
  "Fred": 30847,
  "ĠInclude": 40348,
  "ĠMasonic": 47237,
  "Ġclaimed": 4752,
  "ĠMexican": 10816,
  "fortable": 12065,
  "Ġappalling": 34130,
  "820": 41739,
  "Ġhis": 465,
  "utorial": 44917,
  "Ġ261": 39166,
  "igue": 15212,
  "Visit": 31141,
  "Ġindex": 6376,
  "Ġtripod": 47439,
  "Ġeuph": 40381,
  "Email": 15333,
  "Ġtended": 19960,
  "Ġestablished": 4920,
  "/)": 34729,
  "ĠMichigan": 7055,
  "BF": 29499,
  "ĠAcceler": 29805,
  "ĠTek": 33516,
  "usion": 4241,
  "ĠTome": 46403,
  "Ġconsoles": 22629,
  "Ġbent": 17157,
  "climate": 42570,
  "1978": 37950,
  "Ġpatiently": 37220,
  "ĠDictionary": 28261,
  "ĠCato": 44509,
  "Ġagility": 33546,
  "Ġinventions": 39405,
  "Ġrunes": 32326,
  "ĠCasino": 32802,
  "mbol": 23650,
  "Ġconclusion": 7664,
  "ĠGork": 49882,
  "Ġmarket": 1910,
  "iddling": 41367,
  "Ġwellness": 42506,
  "Mot": 47733,
  "Ġabiding": 48637,
  "âĢĳ": 20977,
  "urgy": 38140,
  "utenberg": 19028,
  "Ġcann": 6463,
  "Ġtenure": 17081,
  "Ġfeminism": 19394,
  "ĠDahl": 41471,
  "Ġplace": 1295,
  "Ġfibers": 26742,
  "Ġarbitrarily": 40647,
  "ĠHard": 6912,
  "acht": 19725,
  "frog": 49956,
  "codes": 40148,
  "Ġnineteen": 43063,
  "requ": 8897,
  "ĠHence": 16227,
  "ĠLethal": 47281,
  "Ġ1070": 49616,
  "Ġautonomous": 18284,
  "Ġwage": 7699,
  "Ġpinpoint": 30534,
  "ĠDesktop": 27850,
  "ond": 623,
  "Rod": 27917,
  "ĠPast": 11303,
  "ĠShy": 36838,
  "Bra": 42333,
  "ĠXander": 46122,
  "Ġsummed": 32794,
  "Ġcriticized": 12318,
  "ĠSkies": 39102,
  "ĠTape": 40849,
  "Ġwallpaper": 39328,
  "Ġnonviolent": 42582,
  "ĠLoans": 33063,
  "Ġstagnation": 45834,
  "Ġinduces": 43614,
  "Ġdefinitive": 17347,
  "Ġfra": 5306,
  "dra": 32491,
  "Ġsouthern": 8372,
  "INAL": 17961,
  "Ġ960": 41263,
  "ĠVenezuel": 13420,
  "ĠEzek": 45875,
  "Ġbung": 43974,
  "Ġgrop": 39136,
  "Ġreiterated": 27116,
  "ĠBroken": 22607,
  "Ġfav": 2090,
  "ĠSpending": 43902,
  "Captain": 27898,
  "Ġcanned": 32530,
  "Released": 45037,
  "acks": 4595,
  "Ġhalftime": 35185,
  "ocaust": 16377,
  "Kick": 45390,
  "inus": 35237,
  "!]": 36463,
  "609": 31751,
  "Track": 24802,
  "ĠCOUNTY": 41012,
  "Ġoutbreaks": 35198,
  "Ġtiger": 26241,
  "ĠguiActiveUnfocused": 30210,
  "Jar": 47511,
  "Ġshift": 6482,
  "ĠTrue": 6407,
  "irrel": 22793,
  "ĠLucia": 48158,
  "ĠRFC": 30978,
  "auld": 30406,
  "Reference": 26687,
  "ĠCinderella": 40933,
  "Ġremained": 6150,
  "ĠBJ": 47204,
  "Ġdegener": 25419,
  "ÂŃ": 3907,
  "ĠBauer": 41971,
  "ĠRupert": 34315,
  "Ġtraining": 3047,
  "ĠAnk": 24792,
  "ĠAsuka": 46649,
  "ĠIslanders": 32868,
  "57": 3553,
  "Ġmarginal": 14461,
  "ĠTEAM": 33536,
  "ĠHalls": 42544,
  "poll": 30393,
  "solid": 39390,
  "Ġsci": 20681,
  "ĠBug": 15217,
  "223": 22047,
  "Ġearns": 29339,
  "Close": 26125,
  "lander": 16235,
  "Ġmig": 37011,
  "Ġglobalization": 39155,
  "Ġskipped": 26684,
  "Ġdecreased": 11832,
  "Ġrampage": 34040,
  "ĠNath": 32607,
  "deg": 13500,
  "Ġwhatsoever": 16014,
  "Ġcompost": 36541,
  "ĠANGEL": 44892,
  "trust": 38087,
  "ĠTurkey": 7137,
  "Ġelemental": 25601,
  "rust": 11469,
  "ĠGerrard": 49314,
  "ensions": 5736,
  "Ġleg": 1232,
  "Parameters": 48944,
  "ĠOverview": 28578,
  "Ann": 18858,
  "Ġresurrect": 27603,
  "Ġlocally": 15726,
  "ĠBout": 40808,
  "ĠEXT": 27489,
  "tap": 44335,
  "ĠCon": 1482,
  "Ġ%": 4064,
  "Ġcasualty": 39068,
  "Ġannounces": 26459,
  "Option": 19722,
  "Ġoversee": 19158,
  "è¦ļéĨĴ": 23614,
  "Ġ`": 4600,
  "Ġinaccessible": 40604,
  "Sport": 42576,
  "......": 16317,
  "acca": 43552,
  "search": 12947,
  "Ġpursu": 8238,
  "Ġforget": 6044,
  "Ġbaseline": 14805,
  "Having": 14698,
  "Ġtravelling": 16574,
  "Ġarming": 44306,
  "ĠTRE": 43236,
  "pdf": 12315,
  "ĠBirch": 47631,
  "Ġadditive": 38298,
  "ãģ¯": 31676,
  "Ġbounded": 49948,
  "Ġtorn": 12445,
  "Ġvisited": 8672,
  "çī": 31965,
  "smart": 27004,
  "Ġhighlight": 7238,
  "ĠRebels": 36069,
  "ĠPell": 43113,
  "Ġmodest": 12949,
  "computer": 33215,
  "Ġslap": 23905,
  "ĠWRITE": 44423,
  "Ġpat": 1458,
  "ĠAlchemy": 43987,
  "ORD": 12532,
  "ëĭ": 46695,
  "ĠBeng": 14964,
  "Ġgolf": 13126,
  "ariat": 21621,
  "Ġdepends": 8338,
  "Ġostr": 42387,
  "Ġpoisonous": 32199,
  "ĠMartha": 27243,
  "erning": 8917,
  "SPEC": 48451,
  "ĠFerr": 19130,
  "Ġang": 3550,
  "Ġhal": 10284,
  "ai": 1872,
  "struct": 7249,
  "Ġtightened": 37257,
  "world": 6894,
  "Ġfetish": 32870,
  "bc": 15630,
  "1971": 41208,
  "ĠConversation": 42427,
  "Ġfederation": 36986,
  "iegel": 28210,
  "Ġconstruct": 5678,
  "mix": 19816,
  "ãĤĤ": 43266,
  "ĠPic": 15085,
  "Ġblurry": 44701,
  "Ġstd": 14367,
  "Ġfetal": 27652,
  "ĠRate": 14806,
  "Ġgaping": 46529,
  "Ġgro": 7128,
  "Format": 26227,
  "Ġoffers": 4394,
  "Tier": 35252,
  "hen": 831,
  "ĠSeraph": 42771,
  "Ġselective": 21792,
  "tier": 24948,
  "olyn": 34742,
  "prison": 35156,
  "Ġhonoured": 45870,
  "icas": 44645,
  "Ġrig": 7805,
  "bedroom": 36269,
  "Ġbothered": 20466,
  "ĠPenet": 46975,
  "ĠSarah": 10490,
  "Ġmidst": 15925,
  "ĠDud": 30673,
  "Ġaccidents": 17390,
  "ĠPRES": 32552,
  "ĠFasc": 41467,
  "Ġammonia": 44957,
  "Ġcourage": 11917,
  "Entry": 30150,
  "Ġbombard": 35285,
  "Ġsensible": 20586,
  "ĠNoah": 18394,
  "iche": 14234,
  "ensive": 2021,
  "ursed": 17539,
  "Ġsolicitation": 47770,
  "rette": 42908,
  "ĠCounsel": 21023,
  "Ġac": 936,
  "uzz": 4715,
  "ĠChall": 10772,
  "cknowled": 33165,
  "atton": 38680,
  "Ġindicators": 21337,
  "Ġ(&": 35494,
  "Ġfist": 18606,
  "ĠPleasant": 35469,
  "Ġpracticed": 19893,
  "ĠWebb": 25130,
  "mini": 45313,
  "Ġillegitimate": 41368,
  "oire": 32177,
  "Ġdash": 14470,
  "Ġstormed": 33997,
  "Ġthumbs": 32766,
  "ĠVoc": 47208,
  "ĠIch": 26364,
  "Ġreconcile": 33570,
  "ĠStatue": 43330,
  "MED": 30733,
  "ĠMassive": 38756,
  "Ġadherence": 34721,
  "Gra": 46971,
  "tree": 21048,
  "Ġamount": 2033,
  "mob": 39949,
  "ikers": 24913,
  "Buffer": 28632,
  "ãĤĵ": 22174,
  "otten": 4728,
  "Ġle": 443,
  "Ġgently": 15165,
  "ĠBaton": 38617,
  "417": 38547,
  "UD": 8322,
  "CHAT": 31542,
  "Ġdissu": 46066,
  "machine": 30243,
  "Ġcontinuously": 17282,
  "umpy": 32152,
  "Ġtherape": 20094,
  "ĠObject": 9515,
  "Ġejac": 39426,
  "ĠBuc": 23627,
  "ĠMarines": 19586,
  "Ġ.": 764,
  "ĠWant": 16168,
  "ĠDun": 5648,
  "radius": 42172,
  "ĠInfinity": 22385,
  "Ĳ": 238,
  "During": 7191,
  "ĠGOLD": 44428,
  "Ġconditions": 3403,
  "Mary": 24119,
  "Ġformat": 5794,
  "ĠIo": 27853,
  "Ġfunky": 42958,
  "Ġmovie": 3807,
  "Ġrows": 15274,
  "isters": 6223,
  "ahime": 49997,
  "ĠDefinitely": 33562,
  "ĠQi": 21924,
  "Ġdrains": 44368,
  "Ġthreaten": 16180,
  "ĠAmerican": 1605,
  "Ġassociates": 20093,
  "Ġspiral": 23642,
  "enda": 7438,
  "Ġunderwent": 25289,
  "Ġmuted": 38952,
  "arget": 7641,
  "noticed": 31696,
  "Manager": 13511,
  "Ġgrouping": 36115,
  "ielding": 30449,
  "ĠHall": 4789,
  "ĠAz": 7578,
  "Ġdamned": 28911,
  "Thanks": 9690,
  "Ġrecords": 4406,
  "Ġluxury": 13064,
  "auts": 17712,
  "ĠASS": 24994,
  "clock": 15750,
  "Ġaffect": 2689,
  "VW": 30133,
  "pl": 489,
  "polit": 34470,
  "12": 1065,
  "Ġhires": 37097,
  "or": 273,
  "1966": 44227,
  "Ġunstoppable": 40181,
  "ec": 721,
  "ãĥ©ãĥ³": 48204,
  "Ġsty": 8944,
  "ĠKath": 18341,
  "ĠThatcher": 31706,
  "ĠEsper": 42083,
  "Ġspectator": 43893,
  "ĠDavies": 26618,
  "ĠDat": 16092,
  "Social": 20636,
  "ĠSector": 25892,
  "spection": 31308,
  "Ġwavelengths": 45656,
  "ĠOcc": 10775,
  "Ġtou": 2819,
  "Micro": 13031,
  "Ġshowed": 3751,
  "Ġescape": 6654,
  "ovation": 17882,
  "Lind": 43410,
  "Ġ||": 8614,
  "._": 13557,
  "ĠInvalid": 17665,
  "Ġhype": 20606,
  "Ġdemonstrators": 25016,
  "uesday": 3322,
  "Ġellipt": 48804,
  "aza": 7056,
  "ischer": 24645,
  "ultimate": 44818,
  "Ġspawning": 38896,
  "Ġpresented": 5545,
  "Request": 18453,
  "poses": 4832,
  "Ġearly": 1903,
  "Ġcustomary": 33093,
  "Ġunderwater": 21258,
  "Ġdishon": 32045,
  "Ġfiat": 36984,
  "ĠCull": 31289,
  "Ġfirearm": 13988,
  "Ġtoured": 44035,
  "ĠChampion": 15869,
  "Ġplur": 30676,
  "ophy": 16982,
  "uve": 45177,
  "ĠEthiop": 23230,
  "ollen": 29952,
  "ĠRegardless": 22250,
  "Ġthen": 788,
  "Ġb": 275,
  "Ġseals": 29718,
  "ĠWesley": 28634,
  "stant": 18797,
  "Ġreflected": 12548,
  "RESULTS": 46274,
  "ous": 516,
  "Ġ--------------------------------": 20368,
  "Ġspor": 35810,
  "Ġidentities": 18413,
  "Ġjog": 48342,
  "Ġremix": 34471,
  "ĠLastly": 36778,
  "Ġdevout": 38440,
  "ĠMeal": 49636,
  "Ġrepet": 46152,
  "ĠHaunted": 43884,
  "ĠViolence": 20908,
  "OULD": 24010,
  "emporary": 33080,
  "healthy": 22796,
  "ĠREM": 22657,
  "reci": 29102,
  "Lower": 31426,
  "ĠGibson": 20400,
  "Ġapproximate": 27665,
  "Ġverses": 24752,
  "bub": 46176,
  "Ġdream": 4320,
  "Ġgrasping": 44787,
  "Ġrescued": 19868,
  "ĠEucl": 48862,
  "ĠBIT": 36992,
  "ĠKore": 3374,
  "ĠGermans": 16064,
  "Ġprincipally": 41889,
  "Ġpickup": 19422,
  "Ġconversions": 32626,
  "Ġparental": 21694,
  "ait": 4548,
  "Ġflawed": 19556,
  "aggressive": 49639,
  "452": 37730,
  "Ġtee": 30479,
  "Commercial": 48401,
  "Christmas": 44614,
  "Ġstub": 17071,
  "anton": 23026,
  "ĠTitans": 18711,
  "England": 39163,
  "ĠEmerging": 48297,
  "rate": 4873,
  "ocumented": 17664,
  "Ġroadside": 39479,
  "Ġearthquakes": 29781,
  "ĠComparison": 34420,
  "Ġpunch": 10862,
  "ĠWarrant": 33872,
  "Evil": 48477,
  "enthal": 34728,
  "ĠTh": 536,
  "%)": 4407,
  "Ġtesting": 4856,
  "MAL": 42126,
  "Ġrash": 28509,
  "Ġcapitals": 44590,
  "Ġstrap": 23016,
  "Ġthird": 2368,
  "Ġgasped": 45236,
  "Ġsurrounding": 7346,
  "ĠâĢ": 564,
  "ĠHOME": 41779,
  "Ġgalactic": 44280,
  "Ġbookstore": 44346,
  "andi": 26800,
  "Ġnegate": 44328,
  "Ġarrogance": 35033,
  "Ġresidences": 45402,
  "arro": 34852,
  "Bee": 49512,
  "ĠLonely": 46501,
  "ĠDSM": 37297,
  "ython": 7535,
  "Lago": 48694,
  "Ġ372": 46633,
  "Ġwired": 28217,
  "Ġregistrations": 47997,
  "ĠIndians": 12746,
  "Ġliberties": 22008,
  "dos": 37427,
  "athon": 12938,
  "Ġirresistible": 45420,
  "ĠSpring": 8225,
  "keye": 34929,
  "ĠNGOs": 32507,
  "izzy": 40593,
  "atics": 23372,
  "ĠEar": 2905,
  "ĠBackground": 25353,
  "Ġnineteenth": 29666,
  "ĠKaz": 16385,
  "È": 132,
  "Ġtoxin": 43026,
  "Development": 41206,
  "ĠEND": 23578,
  "ĠStrait": 41407,
  "ĠLOVE": 27889,
  "Ġoven": 14361,
  "Ġbolt": 18100,
  "Comments": 23903,
  "Ġoff": 572,
  "reek": 10316,
  "ĠPublic": 5094,
  "andy": 10757,
  "ros": 4951,
  "Got": 30074,
  "ĠAir": 3701,
  "OOOOOOOO": 47732,
  "Ġscreenshot": 22032,
  "Ġ50": 2026,
  "boot": 18769,
  "705": 34801,
  "ĠKE": 47134,
  "ove": 659,
  "otics": 23891,
  "313": 25838,
  "Ġsaving": 8914,
  "Ġsunrise": 40048,
  "unes": 4015,
  "ases": 1386,
  "Ġcollectively": 21329,
  "Ġmind": 2000,
  "pelled": 15803,
  "Ġclerk": 21120,
  "emia": 22859,
  "ict": 713,
  "ĠShattered": 48330,
  "ĠMilitary": 12842,
  "Ġmountainous": 47500,
  "chet": 20043,
  "ela": 10304,
  "Ġgive": 1577,
  "Ġlakes": 24768,
  "ĠGoo": 43456,
  "Ġspotting": 43853,
  "ĠOss": 45397,
  "response": 26209,
  "Ġdismissal": 25693,
  "ĠTrying": 31165,
  "ĠisEnabled": 34842,
  "ĠFarrell": 37568,
  "Ġgames": 1830,
  "fact": 22584,
  "Soc": 37949,
  "ĠDirective": 34736,
  "ĠBET": 38651,
  "ORED": 32023,
  "Ġstartled": 36249,
  "Understanding": 43467,
  "ceptive": 25867,
  "Ġobjected": 29811,
  "Ġadmittedly": 33603,
  "Collection": 36307,
  "ĠSz": 27974,
  "development": 31267,
  "portion": 16864,
  "packing": 41291,
  "ĠMasters": 15812,
  "Ġfire": 2046,
  "ĠTrials": 28945,
  "ĠGriffin": 16525,
  "Ġever": 1683,
  "ĠTrudeau": 17524,
  "ablo": 18817,
  "Ġthreatens": 20201,
  "ĠWolver": 26328,
  "Ġdevils": 42466,
  "sers": 17720,
  "Ġimperial": 14312,
  "oki": 18228,
  "Ġissuing": 19089,
  "ilty": 6267,
  "amph": 28474,
  "ĠSchn": 45606,
  "ĠFors": 27325,
  "unit": 20850,
  "Ġmessages": 6218,
  "ĠMikhail": 42040,
  "Ġfrivol": 43418,
  "af": 1878,
  "ĠDumbledore": 27442,
  "Ġcub": 13617,
  "Ġloos": 37222,
  "Ġq": 10662,
  "ĠBengals": 24037,
  "admin": 28482,
  "edi": 13740,
  "atisf": 17403,
  "funding": 25032,
  "Ġhoops": 46730,
  "Ġdisappointing": 17185,
  "ĠBern": 6206,
  "Ġcompany": 1664,
  "Ġstaples": 46413,
  "Ġremainder": 17675,
  "agne": 21080,
  "aste": 4594,
  "hog": 31897,
  "Artist": 43020,
  "Ġcaliphate": 48051,
  "ÅŁ": 46481,
  "Ġrefresh": 14976,
  "ĠBailey": 20330,
  "ĠBed": 15585,
  "utive": 8827,
  "ĠDebt": 30319,
  "Ġpred": 2747,
  "ĠEagles": 13785,
  "atos": 35492,
  "unless": 25252,
  "Ġnewcomer": 41422,
  "ĠNumerous": 45261,
  "Ġv": 410,
  "keepers": 24952,
  "ĠSY": 19704,
  "lain": 34277,
  "actor": 11218,
  "ĠMatt": 4705,
  "Ġmerit": 17004,
  "inge": 11912,
  "hur": 48349,
  "ĠProceedings": 30641,
  "ĠWrest": 20722,
  "Ġenshr": 46919,
  "ĠNothing": 10528,
  "Ġcombine": 12082,
  "established": 27718,
  "Ġlightsaber": 45282,
  "Tour": 39152,
  "othe": 20388,
  "ĠCorker": 44421,
  "Ġ345": 39937,
  "ĠFract": 40548,
  "Ġbuoy": 36675,
  "ĠAttribution": 45336,
  "274": 28857,
  "Steven": 28292,
  "ĠSteel": 7851,
  "ĠDestruction": 25034,
  "Ġnumb": 35519,
  "Ġ702": 43379,
  "ĠElise": 46174,
  "Ġfile": 2393,
  "Ġpanel": 6103,
  "Ġstainless": 25704,
  "ĠPierre": 21204,
  "Ġvisibility": 20742,
  "Ġsad": 6507,
  "ĠFriendship": 39993,
  "lbs": 32133,
  "Ġcrocod": 37565,
  "OWER": 36048,
  "Ġmg": 10527,
  "Irish": 43293,
  "ĠShade": 48747,
  "unct": 16260,
  "Spirit": 41910,
  "asting": 9222,
  "Ġpercentile": 37894,
  "Ġlif": 3868,
  "Ġskirt": 23967,
  "Cur": 26628,
  "Ġ1860": 37637,
  "ĠNaples": 49404,
  "####": 4242,
  "Ġquietly": 12703,
  "Ġrestoration": 19414,
  "Ġwider": 10595,
  "ĠTiff": 35775,
  "venture": 5388,
  "ĠHood": 17233,
  "Ġcf": 30218,
  "our": 454,
  "Ġcausal": 26558,
  "Exp": 16870,
  "Ġindifferent": 31655,
  "opening": 29443,
  "Ġpartnered": 29806,
  "ĠHong": 9764,
  "Ġcaptures": 23007,
  "Pitt": 47627,
  "ĠDill": 44322,
  "mary": 6874,
  "Ġflora": 48037,
  "iona": 32792,
  "ĠMaking": 16427,
  "American": 7437,
  "EF": 25425,
  "ports": 3742,
  "ĠPhil": 4543,
  "ĠKinnikuman": 43010,
  "183": 24839,
  "Domain": 43961,
  "Ġ286": 39697,
  "ĠFritz": 45954,
  "Review": 14832,
  "isting": 9665,
  "RC": 7397,
  "Ġutterly": 15950,
  "ĠâĢķ": 21096,
  "raining": 24674,
  "ĠTrap": 21914,
  "Ġeng": 1786,
  "ĠImm": 9543,
  "undle": 31249,
  "ĠBernstein": 37584,
  "Ġ247": 30179,
  "ĠTens": 40280,
  "Ġabandon": 6871,
  "onel": 26261,
  "hovah": 33023,
  "icky": 17479,
  "Ġ680": 40554,
  "ĠHansen": 27667,
  "Ġcommitting": 17222,
  "asha": 14715,
  "IENT": 28495,
  "Ġdisrupted": 30067,
  "essors": 23295,
  "Ġradiation": 11881,
  "Ġleaping": 45583,
  "20": 1238,
  "ĠHamas": 15767,
  "ĠOsc": 40203,
  "ĠBoone": 44317,
  "730": 43916,
  "Ġdisenfranch": 41307,
  "ĠSafari": 23298,
  "ĠAbbas": 28354,
  "Ġshot": 2823,
  "ĠSAN": 37376,
  "ĠSouth": 2520,
  "Ġworkload": 26211,
  "ĠIPO": 41805,
  "Lua": 36127,
  "Ġswast": 47923,
  "Ġveterinary": 38435,
  "ĠVerify": 49899,
  "Ġanarchist": 26177,
  "Check": 9787,
  "Ġharshly": 43123,
  "ĠTask": 15941,
  "Lair": 40041,
  "Ġsuccess": 1943,
  "ĠRoute": 18956,
  "ĠMem": 4942,
  "Ġboard": 3096,
  "ĠEverett": 36815,
  "Ġstud": 941,
  "endant": 23048,
  "Ġcommercially": 26879,
  "ilo": 18526,
  "ĠProducer": 30436,
  "balanced": 27753,
  "(-": 32590,
  "ĠVish": 36900,
  "Ġattendant": 31277,
  "ocom": 42829,
  "Cart": 43476,
  "Ġcollectors": 26668,
  "Ġfantasy": 8842,
  "Ġforensic": 23953,
  "Ġspons": 7180,
  "Maria": 46827,
  "Here": 4342,
  "Ġbecame": 2627,
  "Ġpresence": 4931,
  "ĠDirt": 49124,
  "vt": 36540,
  "xes": 48169,
  "Ġviewpoint": 28953,
  "sand": 38142,
  "ĠLaboratories": 46779,
  "Ġfares": 33164,
  "ĠDash": 16189,
  "Advanced": 28809,
  "ĠCosmic": 32011,
  "ĠBowl": 8693,
  "ĠTownsend": 46811,
  "erman": 2224,
  "Ġcontaminated": 23543,
  "ĠKhal": 30126,
  "ĠUrs": 37935,
  "Ġ320": 20959,
  "692": 46589,
  "oust": 23968,
  "ipation": 25857,
  "licts": 42267,
  "ĠCategory": 21743,
  "Ġoffence": 14148,
  "ĠPetroleum": 39970,
  "Ġdancers": 35837,
  "ĠUpper": 20390,
  "Plugin": 37233,
  "igs": 9235,
  "Ġmotorists": 32688,
  "ĠPearl": 18482,
  "Ġaccount": 1848,
  "Ġimaginary": 26726,
  "Ġdestabil": 27397,
  "Ġcatalogue": 34614,
  "Ġum": 23781,
  "ĠDiscipline": 48532,
  "ĠÙ": 18923,
  "Ġterrible": 7818,
  "Ġinsists": 17424,
  "Ġrepublic": 17146,
  "uring": 870,
  "Ġvows": 36605,
  "ifications": 6637,
  "Ġcircumvent": 33256,
  "umble": 10344,
  "emies": 5090,
  "puting": 48074,
  "565": 47372,
  "adian": 18425,
  "ĠTCP": 23633,
  "ĠRussell": 11563,
  "ĠPremium": 17315,
  "ONG": 18494,
  "Former": 14282,
  "iatus": 34704,
  "acci": 44456,
  "Ġwood": 4898,
  "ĠReynolds": 21995,
  "ictive": 45279,
  "ĠGreater": 18169,
  "ĠMas": 11066,
  "Ġcrap": 18824,
  "ĠVM": 16990,
  "tool": 25981,
  "imeters": 31551,
  "Ġclub": 3430,
  "inding": 6020,
  "retty": 16100,
  "Ġepoch": 36835,
  "Fall": 24750,
  "ĠSavage": 22287,
  "Bloom": 38941,
  "ĠShift": 15576,
  "ĠBuk": 36810,
  "Ġhomebrew": 45729,
  "jo": 7639,
  "Ġtesters": 42891,
  "121": 19244,
  "containing": 38301,
  "Common": 17227,
  "Ready": 35474,
  "ĠFreddy": 45437,
  "Ġak": 47594,
  "mart": 13822,
  "Ġcondition": 4006,
  "ech": 3055,
  "ĠPract": 13672,
  "parable": 37064,
  "ulla": 47972,
  "Ġhanded": 10158,
  "icz": 28051,
  "awei": 38247,
  "Ġninety": 37989,
  "ophobia": 19851,
  "oneliness": 34634,
  "ĠEC": 13182,
  "ĠEthereum": 20313,
  "Ġfloat": 12178,
  "Ġtheory": 4583,
  "ĠðŁĺ": 30325,
  "ĠKra": 21553,
  "ject": 752,
  "ride": 13154,
  "Cass": 43529,
  "Ġerupt": 17866,
  "Ġsquared": 44345,
  "Ġfair": 3148,
  "ĠDowntown": 25657,
  "Merit": 21583,
  "ĠLiqu": 35515,
  "ĠHonolulu": 43296,
  "ĠClover": 41154,
  "060": 41322,
  "acl": 37779,
  "Ġshockingly": 49992,
  "Ġsocietal": 26877,
  "wagon": 41127,
  "Ġsuburbs": 21040,
  "Ġbeer": 6099,
  "ĠMunich": 22418,
  "ĠChannel": 11102,
  "cancer": 48870,
  "Ġsprung": 39388,
  "Ġmanipulating": 29349,
  "Ġdealings": 29043,
  "!!!": 10185,
  "ĠAndre": 10948,
  "Ġchairs": 18791,
  "Ġ364": 44969,
  "Ġnaked": 12105,
  "ĠnaÃ¯ve": 41492,
  "ĠPOL": 20634,
  "Ġcessation": 35120,
  "ĠDefinitive": 46634,
  "Ġste": 2876,
  "307": 22996,
  "ĠFixes": 34258,
  "Ġenorm": 8885,
  "Ġdiscarded": 25148,
  "Some": 4366,
  "ĠAlicia": 39607,
  "Ġbow": 9563,
  "Ġfond": 16245,
  "ĠUt": 7273,
  "ĠCommunication": 26117,
  "Synopsis": 49771,
  "Breaking": 29449,
  "ilver": 46978,
  "auder": 29233,
  "Ġrelic": 26341,
  "ĠYep": 40810,
  "ĠQuentin": 42447,
  "Ġcensus": 21649,
  "oshenko": 43934,
  "!!\"": 37160,
  "830": 48341,
  "Ġdiffered": 36337,
  "Ġcontainers": 16472,
  "Ġimagined": 15758,
  "Ġton": 5680,
  "ĠRespond": 33556,
  "abetic": 33312,
  "essential": 31195,
  "Ġdiam": 48428,
  "ihad": 11166,
  "guns": 44265,
  "Ġwicked": 20589,
  "Ġmean": 1612,
  "Ġemulate": 33836,
  "Ġtechnically": 14497,
  "igma": 13495,
  "Ġcollaborators": 37886,
  "Ġwit": 20868,
  "Ġcontr": 3445,
  "Ġawaits": 37180,
  "ĠAme": 38561,
  "RIP": 32618,
  "Ġresembled": 37657,
  "prises": 18166,
  "dep": 10378,
  "idency": 9147,
  "ĠEither": 15467,
  "top": 4852,
  "ĠRex": 17853,
  "ectomy": 42505,
  "Ġcreatine": 49346,
  "ĠMoines": 36576,
  "Ġhamstring": 36744,
  "è£": 32518,
  "East": 25234,
  "Random": 29531,
  "Ġcause": 2728,
  "Jet": 42273,
  "Wed": 19864,
  "Ġnaval": 19014,
  "izontal": 38342,
  "Ġplanners": 33596,
  "ovych": 40822,
  "ood": 702,
  "W": 54,
  "Ġdescent": 18598,
  "Ġgang": 7706,
  "Ġwatched": 7342,
  "including": 8201,
  "Ġvolunteer": 13904,
  "ĠSilva": 23720,
  "eta": 17167,
  "125": 11623,
  "Ġhospital": 4436,
  "ĠViz": 36339,
  "zona": 7551,
  "Ã¶n": 48863,
  "ordered": 24071,
  "udging": 38840,
  "Ġanarch": 14061,
  "ertility": 27651,
  "concept": 43169,
  "Ġproprietary": 20622,
  "Ġsubur": 13150,
  "Ġloot": 16702,
  "ĠTall": 22676,
  "Ġlar": 26371,
  "Ġberth": 45015,
  "ĠByz": 36655,
  "yx": 28391,
  "Ġstrugg": 3569,
  "Ġrevived": 28910,
  "ystem": 6781,
  "Ġclinic": 15760,
  "********************************": 17174,
  "Ġbout": 18222,
  "Ġembassy": 18613,
  "Ġstone": 7815,
  "Ġter": 1059,
  "ĠYorker": 27980,
  "Ġrounding": 38185,
  "Ġiss": 1189,
  "Ġ512": 22243,
  "%.": 7225,
  "Ġjoke": 9707,
  "ĠRichmond": 16940,
  "Ġrelentlessly": 37952,
  "Ġairplane": 19401,
  "Ġcurrent": 1459,
  "Ġfaint": 18107,
  "ĠCounter": 15034,
  "Ġventures": 33787,
  "ĠAngry": 31900,
  "Ġbombers": 26127,
  "Ġpermissions": 21627,
  "shield": 26662,
  "ĠSuggest": 35042,
  "ĠBagg": 49329,
  "Wo": 49450,
  "Ġarts": 10848,
  "olve": 6442,
  "Ġwestern": 8830,
  "pp": 381,
  "Ġshuts": 44854,
  "Ġapprox": 5561,
  "ĠAgu": 33118,
  "Ġfiery": 27810,
  "undy": 45459,
  "Ġquizz": 48258,
  "ĠFig": 12138,
  "Ġaltru": 37677,
  "Ġprojected": 13301,
  "holm": 22981,
  "Ġdisliked": 43252,
  "atson": 13506,
  "dig": 12894,
  "Ġearners": 37342,
  "ĠSchwe": 40430,
  "Boston": 31710,
  "lag": 30909,
  "300": 6200,
  "Ġincest": 35961,
  "Ġambitious": 14742,
  "Ġforfeiture": 32075,
  "ĠLocal": 10714,
  "Ġsurrounded": 11191,
  "Lib": 25835,
  "ĠEssence": 36152,
  "gger": 26679,
  "Ġchunks": 22716,
  "ĠCluster": 38279,
  "Ġsuperhero": 17343,
  "Had": 25383,
  "Ġhardships": 44618,
  "Ġshoe": 17292,
  "ĠRonnie": 40892,
  "Ġerupted": 23681,
  "å¹": 33176,
  "Ġmaturity": 24841,
  "ator": 1352,
  "adata": 14706,
  "ĠSchne": 23343,
  "Ġstudent": 3710,
  "ĠFab": 14236,
  "Ġbilled": 33094,
  "ĠMiliband": 38199,
  "yton": 31616,
  "Ġmove": 1445,
  "Ġ1400": 36641,
  "ethyst": 44166,
  "Ġrenovation": 36011,
  "qq": 38227,
  "Ġfruit": 8234,
  "Ġagain": 757,
  "Ġrebellious": 43860,
  "708": 32583,
  "Ġproductive": 12973,
  "title": 7839,
  "sted": 30679,
  "Ġfeelings": 7666,
  "Ġâĸº": 34933,
  "equipped": 40617,
  "Ġjun": 10891,
  "irs": 17062,
  "ĠFemin": 25832,
  "Ġcivilian": 11107,
  "uated": 6605,
  "Ġunch": 16258,
  "Footnote": 33795,
  "Ġproject": 1628,
  "Ġdensity": 12109,
  "Ġdomains": 18209,
  "Ġexamples": 6096,
  "ĠJur": 23383,
  "ĠDI": 14766,
  "694": 45214,
  "Ġpurportedly": 40891,
  "uman": 3778,
  "node": 17440,
  "ASON": 36033,
  "pox": 42557,
  "ĠGenerator": 35986,
  "ĠDairy": 46579,
  "Ġarriving": 14820,
  "uart": 19986,
  "eat": 4098,
  "ĠâĢ¦\"": 46385,
  "icular": 13174,
  "raw": 1831,
  "ĠBlink": 41732,
  "ĠAUD": 41260,
  "Ġannouncement": 8009,
  "Ġvirtuous": 41276,
  "ocon": 36221,
  "ĠJPM": 40145,
  "kiss": 41304,
  "Ġacre": 31244,
  "Ġromance": 19661,
  "ĠMER": 34482,
  "Ġrabbi": 47326,
  "ĠTrick": 30028,
  "ĠBourbon": 41638,
  "leading": 12294,
  "Ġsl": 1017,
  "Ġdirect": 1277,
  "illus": 44342,
  "Ġhanding": 22786,
  "ãĢģ": 23513,
  "ĠEngland": 4492,
  "CL": 5097,
  "ĠIdea": 37560,
  "ĠMand": 13314,
  "Ġapartments": 19592,
  "284": 30336,
  "Ġsor": 25655,
  "Ad": 2782,
  "Lay": 23763,
  "lev": 2768,
  "Ġdeficits": 22729,
  "Ġearning": 13748,
  "į": 235,
  "ĠZar": 28193,
  "Ġsentenced": 11897,
  "led": 992,
  "ĠJazeera": 32409,
  "life": 6042,
  "Ġstreet": 4675,
  "Ġvirtue": 14675,
  "ĠZoe": 32280,
  "Ġchilly": 49018,
  "ĠAlv": 33414,
  "Ġhears": 23180,
  "Ġrectangle": 35991,
  "ĠTime": 3862,
  "Ġspared": 31348,
  "ĠDirectors": 29200,
  "Ġtrophy": 16383,
  "Ġthunder": 18355,
  "Ġ1902": 45611,
  "Ġpile": 14540,
  "ĠUNIVERS": 49677,
  "Ġflavored": 45613,
  "ran": 2596,
  "Ġthous": 3207,
  "Ġuh": 21480,
  "Ġconsum": 2784,
  "ĠBlind": 24507,
  "500": 4059,
  "Ġboosting": 27611,
  "ley": 1636,
  "ĠAsians": 30852,
  "ĠSw": 2451,
  "Ġcomb": 1974,
  "ĠDRAGON": 49819,
  "Ġcy": 3075,
  "Ġlabs": 27887,
  "Ġvariation": 12291,
  "Ġpir": 12276,
  "EMA": 27630,
  "ĠBarrett": 26971,
  "Ġteaser": 38388,
  "ĠBalkans": 48100,
  "Ġdesperately": 16459,
  "Ġsimilarly": 12470,
  "Ġphotographed": 25880,
  "Ġeman": 31184,
  "haust": 42456,
  "mis": 25413,
  "TPP": 31435,
  "zz": 3019,
  "ĠKardashian": 48099,
  "saving": 29336,
  "Ġretail": 6308,
  "crow": 47114,
  "E": 36,
  "Judge": 29511,
  "Ġgall": 7976,
  "Ġpor": 16964,
  "running": 20270,
  "alks": 23833,
  "Ġskill": 5032,
  "Ġenhancements": 29754,
  "Ġscripts": 14750,
  "Ġrelationship": 2776,
  "Ġown": 898,
  "ociated": 19293,
  "Bind": 36180,
  "ĠBuckingham": 47538,
  "orst": 29422,
  "OTOS": 33291,
  "ĠSHE": 48052,
  "ĠCV": 26196,
  "646": 27720,
  "ĠPanama": 23519,
  "ĠPai": 41626,
  "Ġboots": 14412,
  "Ġintoler": 20619,
  "ĠHidden": 20458,
  "ĠReconstruction": 45060,
  "ĠWitcher": 36018,
  "ĠBucs": 44099,
  "ĠIrwin": 48470,
  "Ġafflicted": 39785,
  "Ġsubdu": 35041,
  "Ġaveraged": 16449,
  "round": 744,
  "func": 20786,
  "Phones": 32212,
  "quire": 29782,
  "Ġreunion": 30321,
  "req": 42180,
  "awaited": 41742,
  "ĠTracks": 42259,
  "ĠStates": 1829,
  "Ġflow": 5202,
  "Ġconcealed": 18176,
  "Ġvandal": 26271,
  "endi": 43109,
  "Ġnominating": 48833,
  "ĠTempest": 34367,
  "Ġplaythrough": 48938,
  "ĠJacqu": 44726,
  "Atlanta": 43482,
  "ĠGraham": 11520,
  "ĠVin": 11820,
  "Ġpredictor": 41568,
  "Ġ\\\"": 19990,
  "Ġhits": 7127,
  "Ġhikers": 47961,
  "Ġinclude": 2291,
  "Ġvape": 44931,
  "ĠSony": 10184,
  "usted": 8459,
  "iti": 8846,
  "Ġextermination": 48495,
  "avin": 20637,
  "kat": 41826,
  "Ġsociop": 41221,
  "Ġwant": 765,
  "inement": 21828,
  "Ġunre": 14880,
  "ĠRost": 48306,
  "Ġrequirements": 5359,
  "ĠSalon": 40121,
  "ulators": 24325,
  "Ġcrappy": 40805,
  "ĠCors": 26978,
  "etition": 15620,
  "Ġagile": 36710,
  "Ġhand": 1021,
  "Ġowning": 23107,
  "ositories": 35061,
  "1945": 41931,
  ".''": 13531,
  "Ġwildly": 20278,
  "crew": 42276,
  "Ġblame": 8138,
  "coni": 45774,
  "Ġcanonical": 40091,
  "Ġmeeting": 3249,
  "ulatory": 21386,
  "Ġtid": 29770,
  "Ġessentials": 41954,
  "Ġinfluenced": 12824,
  "Ġkickoff": 40532,
  "ĠChecks": 47719,
  "Ġinvestigated": 12565,
  "Ġredes": 19965,
  "Ġemissions": 8971,
  "ĠPrism": 35417,
  "ĠIS": 3180,
  "Ġanarchy": 42856,
  "ratulations": 30167,
  "ĠIMP": 30023,
  "usb": 43319,
  "holding": 19216,
  "Ġintensive": 18590,
  "A": 32,
  "Ġmatt": 23963,
  "ĠCodex": 41982,
  "):": 2599,
  "1967": 42830,
  "eln": 45542,
  "achu": 32323,
  "Ġroommate": 33305,
  "Cy": 20418,
  "judicial": 46769,
  "Ġmorbid": 34813,
  "Want": 19633,
  "Ġshocked": 11472,
  "ĠHuang": 31663,
  "Ġinsertion": 36075,
  "back": 1891,
  "69": 3388,
  "venant": 15330,
  "vo": 13038,
  "ago": 3839,
  "taining": 7339,
  "Ġheld": 2714,
  "Ġpartisans": 39959,
  "atically": 4142,
  "angan": 37089,
  "Ġ>": 1875,
  "231": 25667,
  "ĠLincoln": 12406,
  "Ġthousands": 4138,
  "ĠBen": 3932,
  "Ġconfirming": 23366,
  "Ġbats": 19553,
  "ĠJackie": 24766,
  "vard": 10187,
  "Ġannotations": 37647,
  "ĠReneg": 41261,
  "âĢĵ": 1906,
  "ĠGiles": 37538,
  "ĠLegal": 16027,
  "Ġrefers": 10229,
  "Ġstroke": 14000,
  "ĠActivities": 36270,
  "tops": 35011,
  "Ġpanels": 13043,
  "Ġretake": 41754,
  "aco": 10602,
  "hered": 6083,
  "319": 35175,
  "oin": 36743,
  "Ġintegration": 11812,
  "Ġplea": 16720,
  "Ġrisky": 17564,
  "memory": 31673,
  "Ġworshipped": 46204,
  "0000000000000000": 25645,
  "Ġlanes": 15296,
  "Ġdenounce": 38639,
  "axe": 38231,
  "Ġadhesive": 43608,
  "Ġconduct": 3189,
  "Prof": 15404,
  "ĠStra": 15195,
  "ĠExc": 25268,
  "mount": 14948,
  "amar": 39236,
  "Ax": 31554,
  "OM": 2662,
  "Ġcomparatively": 31188,
  "Ġgrenade": 26168,
  "oking": 5730,
  "coins": 14624,
  "Ġwatts": 36416,
  "Gas": 39699,
  "Ġimprison": 11116,
  "iss": 747,
  "ccoli": 34544,
  "ped": 9124,
  "ĠCoff": 28584,
  "Ġneighbourhoods": 45221,
  "Ġverte": 30362,
  "Ġdisabled": 10058,
  "Allows": 34934,
  "Beginning": 45198,
  "Ġcoconut": 20132,
  "Ġcorrecting": 39038,
  "HY": 42598,
  "ĠSaber": 40506,
  "ĠMutual": 48807,
  "ASS": 10705,
  "Ġcontradictory": 29096,
  "ĠNatalie": 35571,
  "pless": 14570,
  "ĠLater": 11450,
  "Ġdisrupt": 10114,
  "Ġcalculated": 10488,
  "Ġwind": 2344,
  "Ġexplored": 18782,
  "cest": 9165,
  "Dis": 7279,
  "ĠAhmad": 24152,
  "Ġimaginative": 41138,
  "align": 31494,
  "am": 321,
  "UI": 10080,
  "Ġoffsets": 49005,
  "Ġbooking": 25452,
  "Ġherpes": 45287,
  "ĠSomewhere": 43808,
  "767": 32059,
  "Ġjump": 4391,
  "ĠMcAuliffe": 48044,
  "sharing": 21987,
  "Ġdispar": 14455,
  "Ġcollective": 10098,
  "Ġmissionary": 34692,
  "597": 43239,
  "åŃ": 27764,
  "Ġbandwagon": 49401,
  "Ġ47": 6298,
  "agency": 40955,
  "Ġmastermind": 41353,
  "fire": 6495,
  "ĠEllen": 23811,
  "Ġnomine": 9049,
  "Ġpushed": 7121,
  "ĠMour": 24289,
  "ichita": 41940,
  "Ġwishes": 12802,
  "ĠHotel": 12696,
  "ication": 3299,
  "akes": 1124,
  "Ġniche": 21404,
  "Ġdoing": 1804,
  "Ġauthors": 7035,
  "Ġshattered": 23273,
  "ĠOutside": 22151,
  "asted": 8992,
  "Ġ[+]": 47175,
  "Ġbroom": 47085,
  "ĠDaily": 6714,
  "PAC": 44938,
  "SI": 11584,
  "Ġ/**": 42638,
  "phi": 34846,
  "ĠAV": 14661,
  "Ġmacros": 34749,
  "ĠQuebec": 14778,
  "ĠChavez": 31039,
  "Ġrouted": 42101,
  "Americans": 17636,
  "sworth": 30567,
  "Ġthemes": 13460,
  "eph": 27446,
  "quet": 21108,
  "ĠPediatrics": 46776,
  "ĠROB": 36449,
  "ĠFet": 44649,
  "ĠAAA": 25734,
  "Ġsource": 2723,
  "ĠCommissioners": 48053,
  "changes": 36653,
  "ĠSeaf": 49967,
  "Ġsequential": 35582,
  "Ġwoven": 36932,
  "fare": 9496,
  "ĠKuro": 25796,
  "iao": 13481,
  "Ġingest": 26151,
  "It": 1026,
  "ãĥ´": 29752,
  "priv": 13776,
  "itary": 9331,
  "Ġsecurity": 2324,
  "ĠAnonymous": 19200,
  "Ġtakedown": 33341,
  "µ": 113,
  "Terror": 40194,
  "Ġguerrilla": 42049,
  "ization": 1634,
  "ĠVolunteer": 45202,
  "cluded": 10341,
  "Ġaccompany": 13873,
  "Ġaction": 2223,
  "Ġmarch": 9960,
  "cost": 15805,
  "Ġbloodshed": 40859,
  "Ġcap": 1451,
  "Ġjazz": 21274,
  "Ġhorribly": 33437,
  "Ġlauded": 42086,
  "ARC": 25793,
  "melon": 45690,
  "bi": 8482,
  "DNA": 28886,
  "Business": 24749,
  "Ġra": 2179,
  "Dest": 24159,
  "inar": 22050,
  "Reb": 28951,
  "ĠSing": 5573,
  "ĠHomes": 34698,
  "ĠBBC": 7823,
  "Ġaccusation": 25984,
  "Ġcrystall": 31578,
  "ĠContinent": 45778,
  "Ġbreaks": 9457,
  "ergy": 26079,
  "ĠAdapter": 43721,
  "Ġbusinessman": 19834,
  "ĠCliff": 23501,
  "ĠSt": 520,
  "ĠâĨ": 17804,
  "pr": 1050,
  "Ġoblivious": 38603,
  "Ġkindness": 23887,
  "Ġimmutable": 40139,
  "Ġ,\"": 42911,
  "434": 47101,
  "Ġbribes": 39926,
  "Ġrumors": 14923,
  "ĠLamp": 28607,
  "illegal": 47749,
  "ĠPres": 1763,
  "Ġcrochet": 46149,
  "Ġmeaningful": 11570,
  "Ã¥": 29090,
  "ĠRoma": 29600,
  "Hen": 26055,
  "ĠTreasure": 20215,
  "counter": 24588,
  "Ġattractive": 10966,
  "Ġanalysed": 34763,
  "rational": 20310,
  "Ġapostle": 46329,
  "Ġcriteria": 9987,
  "Ġka": 38387,
  "ie": 494,
  "ia": 544,
  "Ġpotatoes": 18821,
  "Ġginger": 25072,
  "Ġrepud": 42405,
  "Ġphilosophies": 45500,
  "General": 12218,
  "Ġwhich": 543,
  "Ġapprentices": 38523,
  "ĠAfterwards": 39063,
  "ĠApproximately": 40453,
  "Ġdenies": 18866,
  "ha": 3099,
  "ĠBest": 6705,
  "ĠKenobi": 46217,
  "leanor": 41807,
  "Ġpleasures": 35396,
  "Ġshotguns": 47392,
  "acey": 25415,
  "Ġsarc": 40638,
  "ĠStir": 33689,
  "ĠOnePlus": 40518,
  "aptic": 32963,
  "Ġshort": 1790,
  "Ġsnaps": 23429,
  "ĠSOFTWARE": 47466,
  "ĠCoal": 12896,
  "Ġrant": 30993,
  "Ġarrangements": 14752,
  "Ġwealthiest": 35817,
  "Ġverbal": 17755,
  "altern": 33645,
  "Lin": 14993,
  "Ali": 37893,
  "kh": 14636,
  "Ġinstruct": 5048,
  "guy": 22932,
  "Sche": 27054,
  "ĠHancock": 39261,
  "Dur": 36927,
  "ĠOriginal": 13745,
  "Ġceramic": 37973,
  "obj": 26801,
  "ãĢĳ": 31817,
  "Ġlifeless": 46443,
  "Ġanybody": 9599,
  "spirit": 38685,
  "bus": 10885,
  "KNOWN": 44706,
  "storm": 12135,
  "ĠGTA": 30807,
  "Ġeconomies": 16533,
  "Ġprocession": 37968,
  "skinned": 41412,
  "Ġmiles": 4608,
  "Ġwipes": 46142,
  "ĠFif": 12830,
  "Ġdecisively": 47948,
  "Ġabandonment": 38968,
  "mad": 9937,
  "ĠFiat": 23327,
  "Shortly": 30513,
  "Ġcontemplation": 50152,
  "uilt": 21955,
  "ĠBite": 44540,
  "QUI": 43702,
  "ĠKenneth": 23632,
  "Ġspectators": 31704,
  "Ġdiscouraged": 30170,
  "ĠAnthony": 9953,
  "coe": 49270,
  "Ġhostilities": 39082,
  ".......": 25780,
  "Ġ==": 6624,
  "ĠForest": 9115,
  "230": 19214,
  "ĠSwitzerland": 14679,
  ",âĢĶ": 34976,
  "ĠIntro": 37219,
  "Ġdebut": 8886,
  "Ġep": 2462,
  "Ġexplos": 6054,
  "ĠCyp": 48881,
  "Ġ234": 34323,
  "ĠOECD": 33802,
  "ĠThinking": 30707,
  "Ġacute": 14352,
  "Ġnun": 48157,
  "ĠHearing": 34663,
  "aints": 6003,
  "Ġwallets": 29608,
  "ovable": 21985,
  "Ġbipartisan": 20953,
  "Ġlooks": 3073,
  "ĠBohem": 45560,
  "Ġanecdotes": 44662,
  "ĠLinear": 44800,
  "ĠPL": 9297,
  "Ġ1959": 23859,
  "Compared": 44669,
  "Ġobligatory": 44609,
  "film": 26240,
  "ln": 18755,
  "180": 15259,
  "abwe": 27050,
  "Calling": 48593,
  "offensive": 45055,
  "Ġobscene": 33390,
  "Say": 25515,
  "ĠWine": 20447,
  "Ġpinch": 25394,
  "ĠKaty": 36715,
  "ĠNPR": 17921,
  "ĠCorpus": 44874,
  "Ġinforms": 30375,
  "gart": 41651,
  "ĠDillon": 40057,
  "733": 49995,
  "dayName": 45392,
  "Ġanthropology": 45424,
  "Studio": 41501,
  "ĠAgreement": 12729,
  "ĠPeace": 12689,
  "Wolf": 32069,
  "ĠSmith": 4176,
  "ĠV": 569,
  "Ġtrillions": 45922,
  "Ġinsert": 7550,
  "Ġherbal": 35867,
  "000": 830,
  "Ġbottom": 4220,
  "Ġdexter": 44405,
  "Ġshareholder": 29378,
  "Ġiterator": 41313,
  "Ġwhistle": 16121,
  "Ġinvis": 44837,
  "Ġrespond": 3031,
  "ĠKaepernick": 30112,
  "Ġgrind": 20078,
  "Ġmanip": 7704,
  "Ġtough": 5802,
  "Ġlantern": 41207,
  "ĠXIV": 42667,
  "Ġuniversity": 6403,
  "Ġknowledgeable": 29549,
  "APH": 31300,
  "Ġstereo": 24820,
  "Ġyellow": 7872,
  "Ġsluggish": 40186,
  "uko": 29794,
  "Ġbiotech": 47693,
  "Ġkill": 1494,
  "ĠReleases": 48691,
  "ĠNickel": 38398,
  "ĠLEDs": 33697,
  "raf": 32188,
  "Ġabundant": 23263,
  "ĠDesire": 41042,
  "Ġflourished": 45671,
  "Ġrandom": 4738,
  "bar": 5657,
  "ĠSS": 6723,
  "ĠPhilly": 30029,
  "every": 16833,
  "chance": 39486,
  "China": 14581,
  "ĠApocalypse": 21308,
  "Advertisement": 4723,
  "ĠJoseph": 7212,
  "Adds": 46245,
  "ĠNAV": 47140,
  "icates": 16856,
  "BD": 14529,
  "ĠJah": 48984,
  "ĠNRA": 23962,
  "ĠWat": 12242,
  "Ġsteering": 19702,
  "flags": 33152,
  "HOME": 39069,
  "Ġacquire": 12831,
  "ers": 364,
  "Ġmakers": 14429,
  "504": 33580,
  "Ġcircum": 4456,
  "ĠLt": 19090,
  "ucky": 5309,
  "Ġmobilization": 46762,
  "Ġshines": 32481,
  "ingen": 36795,
  "seconds": 43012,
  "Ġfuelled": 49425,
  "ĠCunning": 30249,
  "ĠSapphire": 35718,
  "yle": 2349,
  "ĠInternal": 18628,
  "Ġinconven": 20488,
  "Ġpain": 2356,
  "clude": 9152,
  "idates": 37051,
  "ĠTheater": 22207,
  "ĠMoroc": 23711,
  "Ġmodifiers": 37395,
  "ĠResults": 15691,
  "alling": 9221,
  "ĠIter": 40806,
  "Bs": 37000,
  "Ġgloomy": 46400,
  "Ġilliter": 45029,
  "ĠSOS": 42707,
  "Ġhipp": 18568,
  "ĠEurope": 2031,
  "Ġpersuasive": 40116,
  "Sah": 32194,
  "cent": 1087,
  "Ġwash": 13502,
  "Ġawhile": 27416,
  "ĠMLB": 18532,
  "Os": 16748,
  "ols": 10220,
  "Alpha": 38077,
  "Ġentertain": 8204,
  "------": 23031,
  "ĠAgain": 6521,
  "ry": 563,
  "Ñģ": 21727,
  "boxing": 45471,
  "holiday": 37689,
  "yp": 4464,
  "Ġstirring": 26547,
  ")?": 19427,
  "ĠAndreas": 33728,
  "money": 26316,
  "flation": 33521,
  "Port": 13924,
  "Ġscouting": 27088,
  "Ġroar": 34532,
  "Ġthoughts": 6066,
  "ĠCorbyn": 15673,
  "ĠManhattan": 13458,
  "efully": 7549,
  "idth": 5649,
  "Ġrisked": 42179,
  "Ġdeadliest": 39268,
  "ĠNull": 35886,
  "Ġpole": 16825,
  "umer": 6975,
  "Ġ275": 25829,
  "Ġlosses": 9089,
  "Ġthinking": 3612,
  "Ġgraded": 44545,
  "ĠUD": 43700,
  "Ġ550": 25240,
  "almost": 28177,
  "Ġsealed": 15283,
  "437": 43284,
  "iller": 4665,
  "ĠGreg": 8547,
  "Ġextr": 22820,
  "ĠKendrick": 38643,
  "ĠLaurel": 43442,
  "Ġpracticing": 18207,
  "Ġalgorithms": 16113,
  "ĠSleep": 17376,
  "Male": 25486,
  "ught": 8951,
  "Ġdilemma": 26566,
  "Ġteachings": 19564,
  "oples": 12614,
  "Ġantidepressants": 41587,
  "Ġtroubles": 14979,
  "ĠAlternatively": 25929,
  "ĠGuys": 29899,
  "Ġdeity": 26462,
  "Words": 37117,
  "Ġthrott": 46692,
  "Ġgrew": 6348,
  "Ġformerly": 15734,
  "Ġ387": 49689,
  "Ġprosecutions": 36582,
  "Ġconsider": 2074,
  "ĠBowling": 44748,
  "Ġsnipers": 50238,
  "Ġheavy": 4334,
  "Ġbil": 47027,
  "ĠCookie": 39606,
  "591": 48952,
  "Ġoh": 11752,
  "ĠMarried": 44098,
  "develop": 16244,
  "Ġ191": 31009,
  "furt": 29205,
  "ĠMuscle": 43683,
  "osexual": 8542,
  "Ġstruck": 7425,
  "ĠBeyond": 12197,
  "oping": 15816,
  "ĠTravels": 48899,
  "ĠHarbor": 21146,
  "ĠMillion": 23425,
  "Ġselfie": 38704,
  "agos": 48215,
  "ĠLAT": 42355,
  "Ġextravagant": 45997,
  "ĠUpton": 47755,
  "Ġexpress": 4911,
  "Ġperspectives": 22582,
  "Ġaffecting": 13891,
  "ĠRabb": 22502,
  "Ġ445": 48655,
  "Ġenv": 17365,
  "ĠLetter": 18121,
  "ito": 10094,
  "his": 14363,
  "column": 28665,
  "Ġembroiled": 46767,
  "clean": 27773,
  "](": 16151,
  "CDC": 47667,
  "elope": 47329,
  "Ġresolution": 6323,
  "Ġbeasts": 21930,
  "ĠPlayStation": 14047,
  "610": 39132,
  "herer": 48386,
  "Ġclinch": 45963,
  "App": 4677,
  ")</": 36475,
  "Ġnews": 1705,
  "Ġrampant": 26262,
  "ĠInner": 24877,
  "football": 15914,
  "197": 24991,
  "08": 2919,
  "Ġdinners": 42541,
  "CHAR": 38019,
  "Ġsystems": 3341,
  "Ġannoun": 2335,
  "arted": 19112,
  "ĠOper": 6564,
  "ategories": 26129,
  "disc": 15410,
  "Ġlicens": 8240,
  "Ġbombed": 34221,
  "Ġtrajectory": 22942,
  "gs": 14542,
  "ĠUSPS": 44640,
  "ĠAutob": 41735,
  "stem": 927,
  "en": 268,
  "ĠMust": 12039,
  "Ġabstract": 12531,
  "Ġintest": 20183,
  "Ġchange": 1487,
  "Ġcontempl": 19377,
  "URES": 29514,
  "Ġdirectory": 8619,
  "Ġelders": 27495,
  "nine": 30888,
  "enary": 21629,
  "sov": 47272,
  "ĠLeonardo": 38083,
  "ĠSongs": 31772,
  "Si": 42801,
  "Ġworse": 4785,
  "ĠHarley": 27440,
  "Ġbelieved": 4762,
  "Ġburned": 11544,
  "ĠPolly": 36898,
  "ãĥł": 25795,
  "Press": 13800,
  "Ġprofitable": 17967,
  "ĠParsons": 35925,
  "ĠBad": 7772,
  "Subject": 19776,
  "Ġspecially": 20905,
  "Ġcas": 6124,
  "esy": 9259,
  "Ġnotions": 26226,
  "ĠDep": 2129,
  "ĠCaldwell": 37387,
  "Ġpitching": 21088,
  "keley": 13490,
  "cand": 46188,
  "Ġassociations": 15814,
  "Star": 8248,
  "Mat": 19044,
  "Champ": 48507,
  "Ġtunnel": 13275,
  "ivid": 1699,
  "ozyg": 49834,
  "Ġpreviews": 41418,
  "Would": 17353,
  "Ġmerciless": 40618,
  "Ġslightest": 24917,
  "Ġsurprising": 6452,
  "ĠPhiladelphia": 8857,
  "Ġjeopard": 22451,
  "ĠGaia": 37471,
  "ãĤ": 1792,
  "Arizona": 40732,
  "Ġcrystal": 15121,
  "550": 22730,
  "Grand": 23581,
  "ĠAttacks": 24647,
  "metry": 41935,
  "Description": 11828,
  "ĠVIDE": 45748,
  "Ġprotracted": 44466,
  "Ġseas": 21547,
  "Ġcorrectness": 29409,
  "rimp": 23750,
  "ĠAustralians": 24933,
  "Ġsilicon": 29867,
  "sty": 34365,
  "ĠKenny": 22102,
  "ULL": 9994,
  "ĠWynne": 45867,
  "icester": 26382,
  "Ġunle": 15809,
  "ĠMara": 40124,
  "Arcade": 43763,
  "ologne": 30520,
  "Ġblunt": 19861,
  "asher": 31218,
  "ForgeModLoader": 24934,
  "ĠAwareness": 36735,
  "Ġcurriculum": 20583,
  "Ġcommand": 3141,
  "ikes": 7938,
  "Ġmotions": 25530,
  "ĠEx": 1475,
  "ĠRobots": 39096,
  "ĠLey": 40662,
  "Label": 33986,
  "Ġachievements": 16970,
  "naires": 43317,
  "Ġdossier": 34602,
  "vable": 23765,
  "ĠVenezuelan": 34497,
  "Ġmultiply": 29162,
  "Ġsubsystem": 39335,
  "Ã£o": 28749,
  "ĠPict": 10780,
  "Ġcleric": 33824,
  ",''": 14004,
  "Ġcommissions": 30421,
  "Ġmisconduct": 17063,
  "operative": 27173,
  "arrett": 34878,
  "ĠFloyd": 21150,
  "ĠAmend": 32218,
  "URI": 47269,
  "age": 496,
  "usky": 42431,
  "ĠTrader": 41956,
  "ĠCoul": 27854,
  "acted": 23800,
  "fest": 23411,
  "jar": 9491,
  "ĠRule": 14330,
  "mbudsman": 47012,
  "Ġdone": 1760,
  "Ġconsolation": 45194,
  "ĠSAF": 37630,
  "etchup": 47132,
  "atical": 39056,
  "Ġparalyzed": 36175,
  "ĠACL": 17382,
  "Ġlivestock": 24424,
  "Ġabolish": 35531,
  "ĠOkin": 41020,
  "ĠChips": 45864,
  "Ġcontributing": 14329,
  "Ġsuffice": 34302,
  "ĠROS": 48263,
  "ĠOutlook": 30096,
  "Ġshady": 36135,
  "Ġdepression": 8862,
  "dullah": 23969,
  "Ġadmissions": 25349,
  "Ġreference": 4941,
  "Ġconstructs": 34175,
  "ĠCampaign": 13718,
  "Ġmissing": 4814,
  "mit": 2781,
  "Ġ++": 19969,
  "Ġfatalities": 30091,
  "change": 3803,
  "asuring": 45925,
  "Ġdreams": 10625,
  "Ġanal": 2037,
  "needs": 50032,
  "Ġshrinking": 27382,
  "Ġcolleagues": 7810,
  "ĠDeposit": 44158,
  "ĠMace": 48925,
  "oggles": 48549,
  "ĠAuthent": 31885,
  "otin": 41403,
  "Ġirony": 21296,
  "ulton": 37944,
  "Ġquarry": 47780,
  "terness": 34697,
  "Ġthink": 892,
  "Interest": 19302,
  "Ġproduced": 4635,
  "Professional": 49138,
  "ĠSpan": 49101,
  "ĠSnow": 7967,
  "ĠABV": 49993,
  "Ġphotoc": 49857,
  "Ġdiabetes": 12593,
  "atin": 10680,
  "of": 1659,
  "Saturday": 19844,
  "Ġfades": 41381,
  "ĠBalt": 9035,
  "Ġrodents": 41093,
  ".}": 44587,
  "Ġsituation": 3074,
  "Ġital": 46127,
  "ribe": 4892,
  "Ġgroove": 35096,
  "Ġmailbox": 37282,
  "ĠNotably": 45683,
  "emin": 14857,
  "Ġdistance": 5253,
  "Ġshirts": 20858,
  "Ġcherry": 23612,
  "ĠMeditation": 41616,
  "oteric": 38571,
  "ppe": 27768,
  "ĠDesign": 8495,
  "ustomed": 22646,
  "Ġsiblings": 20569,
  "Ġfell": 3214,
  "ĠWorlds": 19946,
  "Ġenrollment": 20753,
  "Ġcultivated": 30499,
  "oway": 41788,
  "ĠMystic": 22936,
  "925": 46351,
  "Ġflank": 30172,
  "Ġfilament": 46538,
  "Ġass": 840,
  "Farm": 48412,
  "Ġ139": 23666,
  "ĠSon": 6295,
  "Ġeyeing": 48847,
  "Ġmechanism": 9030,
  "Applic": 33583,
  "erry": 6996,
  "Ġcoward": 26769,
  "ĠConservative": 11132,
  "209": 22567,
  "digy": 41923,
  "eddy": 21874,
  "Martin": 24778,
  "Ġdeclaration": 14305,
  "1920": 40454,
  "å¸": 30585,
  "518": 44085,
  "itÃ©": 43816,
  "ommel": 48990,
  "ambling": 15366,
  "Ġatheism": 38365,
  "knowledge": 45066,
  "Have": 11980,
  "ĠIng": 17589,
  "ijing": 11030,
  "Ġproducing": 9194,
  "Ġbast": 19918,
  ")].": 25295,
  "ĠCommander": 13353,
  "Ġvirtual": 7166,
  "Ġrebounds": 18841,
  "477": 32883,
  "Ġturbulent": 42291,
  "Ã¯ve": 38776,
  "ĠWikileaks": 35828,
  "Ġdisciples": 23351,
  "Ġgroundbreaking": 31088,
  "Since": 6385,
  "ĠÂ©": 10673,
  "cheat": 46799,
  "Ġgained": 8618,
  "Deal": 45776,
  "ĠContinental": 30462,
  "Ġ398": 39260,
  "Ġshielding": 43539,
  "assin": 44961,
  "ĠALSO": 35912,
  "lymp": 6760,
  "Ġdiluted": 37936,
  "Ġmamm": 13418,
  "Ġcreep": 13972,
  "ĠChosen": 39884,
  "phase": 40715,
  "ĠSpo": 49331,
  "Laughs": 34610,
  "aws": 8356,
  "Ġpatient": 5827,
  "ansk": 34738,
  "Ġworkshop": 20243,
  "Ġbrass": 20422,
  "454": 34229,
  "answered": 31966,
  "anted": 4126,
  "Ġprofess": 2992,
  "apon": 9184,
  "ĠLegacy": 14843,
  "ĠOFF": 18562,
  "ĠBur": 5481,
  "Ġstrategist": 25651,
  "Ġairport": 9003,
  "def": 4299,
  "Ġcustomers": 4297,
  "ĠArd": 34597,
  "Ġtopple": 49377,
  "ĠHamp": 13039,
  "Ġwith": 351,
  "Ġtotality": 44861,
  "ne": 710,
  "Investigators": 33528,
  "311": 36244,
  "Ġattacked": 7384,
  "Ġscar": 10153,
  "Ġsophisticated": 13767,
  "Ġjobs": 3946,
  "Ġest": 1556,
  "thank": 40716,
  "Ġcensorship": 21185,
  "Robin": 40656,
  "Ġplagiar": 42054,
  "ĠRat": 11738,
  "ĠDy": 23524,
  "ĠTerr": 38859,
  "ĠColin": 18373,
  "Ġfight": 1907,
  "Toy": 48236,
  "ĠSomers": 39879,
  "ĠSwed": 7289,
  "Ġaid": 6133,
  "Santa": 42694,
  "178": 23188,
  "ĠYates": 34916,
  "Ġenclave": 49842,
  "Ġchimpan": 36064,
  "ĠRemove": 17220,
  "Ġcontribut": 4076,
  "ĠThompson": 11654,
  "ĠVerizon": 18062,
  "ĠGiovanni": 50191,
  "phans": 44464,
  "Ġfue": 37911,
  "Ġexempl": 21433,
  "ĠMIA": 44903,
  "ĠRye": 45014,
  "Ġargument": 4578,
  "Ġdessert": 23084,
  "Ġhaz": 11595,
  "Ġsystematically": 25735,
  "ĠUrug": 31021,
  "ĠIvanka": 31002,
  "aligned": 41634,
  "ixt": 6346,
  "ggie": 23571,
  "omical": 22545,
  "ĠSheffield": 33496,
  "YY": 26314,
  "Ġparliamentary": 17521,
  "Ġboils": 40169,
  "Ġcounsel": 7739,
  "office": 31810,
  "Ġ1917": 24168,
  "Ġwounded": 10657,
  "Ġperpet": 8939,
  "Ġinh": 25783,
  "ĠChild": 5932,
  "Ġbusy": 8179,
  "ĠPre": 3771,
  "ads": 5643,
  "ĠEvery": 3887,
  "Enhanced": 49026,
  "ĠStore": 9363,
  "ĠSyndrome": 27109,
  "ĠMetall": 35616,
  "ĠAustralia": 4505,
  "Ġfumes": 47301,
  "ivariate": 42524,
  "ĠPir": 10334,
  "YouTube": 33869,
  "Ġfiles": 3696,
  "Ġdispute": 11047,
  "Ġelevate": 36830,
  "Ġsubsidiaries": 34943,
  "Ġsim": 985,
  "ĠReport": 6358,
  "ĠSpeak": 40802,
  "Ġextend": 9117,
  "Ġcarniv": 41919,
  "Ġwhile": 981,
  "itutional": 5677,
  "Ġsort": 3297,
  "ĠCollabor": 37322,
  "ĠWanted": 41536,
  "Ġlowered": 17788,
  "omsday": 33415,
  "ĠContribut": 25767,
  "ickers": 21630,
  "ĠExplore": 41401,
  "ĠWells": 18292,
  "Ġprioritize": 32980,
  "eren": 14226,
  "Ġdrinkers": 40527,
  "ĠUnable": 27319,
  "iance": 3610,
  "iffs": 10203,
  "ĠGift": 21208,
  "Ġrestrictions": 8733,
  "Ġpasser": 30286,
  "Ġtam": 21885,
  "eter": 2357,
  "ĠHeader": 48900,
  "Ġthe": 262,
  "ĠOng": 48041,
  "ĠErit": 43349,
  "Ġlow": 1877,
  "Ġtort": 7619,
  "Circ": 31560,
  "athi": 44202,
  "outher": 44262,
  "ĠBuddhism": 25932,
  "Ġtexts": 13399,
  "Ġcongest": 22791,
  "nice": 44460,
  "Fort": 21926,
  "ĠWinter": 10633,
  "alon": 40755,
  "ĠKim": 6502,
  "Ġmeasurable": 40757,
  "aram": 41158,
  "egg": 33856,
  "ĠMÃ¼": 40790,
  "Ġtasted": 29187,
  "ĠLich": 35171,
  "wife": 22095,
  "Ġcages": 37933,
  "Tue": 41392,
  "icc": 44240,
  "ĠTasman": 29958,
  "Ġmisses": 18297,
  "description": 11213,
  "Ġand": 290,
  "Ġcorrelated": 23551,
  "Ġundergone": 29900,
  "ĠSpock": 37945,
  "rake": 33788,
  "Ġbacklash": 19135,
  "level": 5715,
  "sonian": 35202,
  "Ġcosmos": 39385,
  "Ġcoloring": 33988,
  "Ġgrounds": 9384,
  "Ġunex": 8522,
  "ĠBans": 39535,
  "Ġamaz": 40642,
  "Ġexplanations": 18681,
  "Ġunw": 7379,
  "Ġtask": 4876,
  "mess": 37348,
  "Ġlocations": 7064,
  "stars": 30783,
  "Ġwhistlebl": 24516,
  "ĠSax": 29242,
  "iol": 1669,
  "Ġseparat": 22439,
  "Ġrecipients": 20352,
  "eries": 10640,
  "ĠStrong": 13535,
  "ĠPIT": 49040,
  "Ast": 33751,
  "ĠâĢĶ": 851,
  "Ġbound": 5421,
  "ĠWelsh": 22945,
  "Andrew": 20508,
  "GI": 18878,
  "Ġrankings": 16905,
  "oun": 977,
  "imgur": 19791,
  "ãĤ¼": 30432,
  "members": 30814,
  "seless": 10950,
  "ĠSociety": 7023,
  "urd": 2799,
  "Platform": 37148,
  "Ġsized": 19943,
  "Ġrevisit": 32302,
  "Ġfullest": 40830,
  "ĠZimmer": 18926,
  "ĠÅ": 25370,
  "Ġdefiant": 36219,
  "ĠSometimes": 8975,
  "afia": 22214,
  "impact": 48240,
  "ĠPigs": 49210,
  "Äĵ": 27092,
  "urgical": 31839,
  "Ġspirits": 13747,
  "ĠPreston": 34564,
  "Ġsovereign": 18901,
  "ĠHim": 10978,
  "Ġboun": 31283,
  "ĠÂ£": 4248,
  "Ġoppose": 12856,
  "ĠBeing": 11204,
  "Ġfun": 1257,
  "Ġbeautifully": 21104,
  "camera": 25695,
  "ellect": 6879,
  "oliath": 43009,
  "Nine": 37603,
  "Ġendurance": 22965,
  "brance": 28031,
  "Ġpublisher": 9991,
  "ĠPhelps": 40587,
  "Ġcompletion": 11939,
  "ĠChocolate": 24777,
  "ĠMansion": 38560,
  "ĠPhilips": 46905,
  "Ġbegg": 44887,
  "Ġoptimistic": 16915,
  "ul": 377,
  "ĠCreat": 7921,
  "Look": 8567,
  "Ġpts": 43344,
  "Ġsounds": 5238,
  "chemy": 26599,
  "Lake": 43035,
  "Ġemphas": 6661,
  "ĠMarina": 35321,
  "ĠRepublican": 3415,
  "ĠActually": 18689,
  "Ġrespected": 14462,
  "itored": 20026,
  "ando": 25440,
  "G": 38,
  "ĠFilter": 25853,
  "Ġfractures": 39381,
  "eli": 43733,
  "Ġfrom": 422,
  "Ġions": 39270,
  "043": 48768,
  "Ġthroat": 13589,
  "Ġsubversive": 49685,
  "Ġslime": 34570,
  "ĠDecoder": 34580,
  "Ġsp": 599,
  "NYSE": 49430,
  "ĠSocket": 47068,
  "chard": 30215,
  "Ġdrive": 3708,
  "making": 8601,
  "Ġ28": 2579,
  "Ġ258": 37528,
  "ĠSciences": 13473,
  "position": 9150,
  "Ġclassical": 15993,
  "yah": 46848,
  "ORGE": 49697,
  "posal": 40007,
  "ĠBehavior": 20181,
  "ĠLarson": 42630,
  "Ġcooker": 37171,
  "Ġdisplacement": 29358,
  "IGH": 18060,
  "Ġcampaigners": 35933,
  "drivers": 36702,
  "Ġcontradicts": 40081,
  "Ġ16": 1467,
  "Ġvengeance": 30657,
  "ĠTwins": 29640,
  "likely": 40798,
  "ĠGer": 13573,
  "Ġurl": 19016,
  "Ġlistens": 35019,
  "ucket": 38811,
  "heads": 16600,
  "omb": 2381,
  "Ġcervical": 36012,
  "SpaceEngineers": 31032,
  "Ġbenchmark": 18335,
  "Ġdeposited": 27163,
  "ĠAv": 5184,
  "Ġidol": 21580,
  "witz": 28155,
  "Ġsodium": 21072,
  "ĠAdmir": 21177,
  "Ġcontents": 10154,
  "Ġthemselves": 2405,
  "ĠLauren": 25672,
  "fu": 20942,
  "Ġhelp": 1037,
  "ĠGrande": 29073,
  "plot": 29487,
  "DM": 23127,
  "ĠAgainst": 12914,
  "Ġpushing": 7796,
  "Ġadminist": 2719,
  "Ġplunged": 31460,
  "ĠMental": 21235,
  "Mu": 33239,
  "Ġrobot": 9379,
  "Ġobligation": 12990,
  "Ġwarranted": 32502,
  "ĠSprite": 33132,
  "ĠBelt": 16734,
  "ĠEighth": 41040,
  "Ġterrorists": 10509,
  "Ġbiting": 30791,
  "Ġmodernization": 49400,
  "ĠTX": 15326,
  "Ġunlikely": 7485,
  "ĠPokÃ©mon": 9887,
  "ĠBattery": 23490,
  "ĠEclipse": 30991,
  "Ġhashtag": 23950,
  "Ġendless": 13079,
  "ological": 2770,
  "flu": 35522,
  "ÙĬ": 22654,
  "being": 11873,
  "illa": 5049,
  "pie": 21749,
  "Ġsmoothly": 21461,
  "ĠBrowne": 46760,
  "Ġcinem": 13483,
  "ĠCopy": 17393,
  "ĠTue": 30030,
  "STR": 18601,
  "Ġenforce": 4605,
  "ĠBene": 36585,
  "Ġgle": 26852,
  "virt": 48940,
  "95": 3865,
  "pect": 806,
  "ĠHonest": 28106,
  "shall": 49271,
  "ĠBrandon": 14328,
  "ĠHoward": 8442,
  "Tile": 35103,
  "actus": 34144,
  "ĠHalloween": 16032,
  "Byte": 40778,
  "oscopic": 48228,
  "hid": 49675,
  "Study": 39841,
  "Ġprofiling": 31582,
  "reporting": 49914,
  "Ġgcc": 49582,
  "Ġsne": 10505,
  "ĠCreative": 17404,
  "377": 26514,
  "Ġshore": 15191,
  "Ġbishops": 27538,
  "Ġpont": 45443,
  "ignment": 16747,
  "map": 8899,
  "Red": 7738,
  "Ġcabin": 9351,
  "ollower": 47030,
  "techn": 23873,
  "Ġallerg": 30975,
  "ĠEg": 36386,
  "Alex": 15309,
  "ĠMit": 11707,
  "ĠUnfortunately": 8989,
  "Ġmartyr": 28009,
  "uterte": 23314,
  "Ġwindow": 4324,
  "Ġregion": 3814,
  "ographical": 17046,
  "Ġ313": 35897,
  "Ġcommonly": 8811,
  "Ġfeudal": 37591,
  "iolet": 19194,
  "ĠCavs": 38943,
  "aurus": 22302,
  "ĠBike": 26397,
  "Ġdate": 3128,
  "Op": 18257,
  "Ġ:-)": 47226,
  "emic": 5314,
  "ĠHolding": 31703,
  "Ġstaggering": 23508,
  "Ġgazed": 50255,
  "Ġadminister": 21766,
  "Ġdependent": 10795,
  "Ġ600": 10053,
  "aditional": 27013,
  "Ġentry": 5726,
  "-.": 34507,
  "Ġ\"<": 33490,
  "ĠDisorder": 31162,
  "oles": 4316,
  "Ġcollateral": 27907,
  "ĠMerc": 12185,
  "arching": 38270,
  "Christian": 20298,
  "mington": 39773,
  "Ġsigh": 19680,
  "danger": 38537,
  "Ġfactories": 17590,
  "Ġviolet": 45725,
  "ery": 1924,
  "another": 29214,
  "ream": 1476,
  "ĠHour": 19123,
  "çķ": 45911,
  "Ġtoggle": 19846,
  "Ġobscurity": 48326,
  "prop": 22930,
  "texture": 41293,
  "etary": 8527,
  "Ġthigh": 19341,
  "ahl": 15668,
  "Electric": 44132,
  "Interestingly": 33092,
  "Ġtrash": 13913,
  "Ġbe": 307,
  "nin": 35073,
  "Ġcursed": 25155,
  "ĠOak": 9121,
  "Ġmuseum": 13257,
  "Ġwide": 3094,
  "Ġarchaeological": 30971,
  "Ġsecret": 3200,
  "aneous": 11655,
  "imsy": 48295,
  "Ġarguing": 11810,
  "Ġrings": 13917,
  "Ġgenerators": 27298,
  "Ġrefinement": 47517,
  "Ġshoots": 20611,
  "ĠJaw": 40863,
  "581": 48630,
  "ĠRefugees": 38550,
  "Ġways": 2842,
  "ĠSke": 19460,
  "Ġpoisons": 49121,
  "Ġenslaved": 39216,
  "Ġsloppy": 35862,
  "ĠTem": 5825,
  "Story": 11605,
  "Ġleveled": 33297,
  "çļĦ": 21410,
  "Ġdefamation": 36662,
  "ĠFigures": 36574,
  "Ġdive": 15647,
  "Ġinteresting": 3499,
  "reality": 46290,
  "Ġscreened": 32862,
  "Ġassertion": 19190,
  "Ġreversed": 17687,
  "Ö¼": 47903,
  "Ġdefeat": 7433,
  "ĠDEL": 28163,
  "icians": 5106,
  "Ġdispens": 18905,
  "ĠBeer": 16971,
  "ĠKathryn": 48674,
  "atalie": 30951,
  "ĠHolder": 24210,
  "Activity": 16516,
  "ines": 1127,
  "Ye": 35543,
  "ĠLance": 18990,
  "Ġrestraints": 45369,
  "ĠBerry": 20165,
  "Ġautomobile": 27930,
  "Ġtested": 6789,
  "ĠOnline": 7467,
  "Ġflowing": 17609,
  "ĠTanner": 43544,
  "Ġ****": 25998,
  "Soon": 28093,
  "terday": 6432,
  "Ġgif": 9381,
  "ĠÐ": 12466,
  "Ġshape": 5485,
  "verbal": 46953,
  "JO": 45006,
  "acteria": 10634,
  "Ġchemicals": 12910,
  "Ġawe": 25030,
  "Vs": 23266,
  "ĠMason": 14737,
  "Ġ780": 41287,
  "Ġnightmares": 33301,
  "ĠBoat": 30828,
  "hess": 33979,
  "ĠAngular": 28147,
  "Ġsympathetic": 22335,
  "Ġborder": 4865,
  "ĠAfghanistan": 8037,
  "intendent": 21075,
  "Ġau": 35851,
  "Ġgroundwork": 40641,
  "Ġcour": 1093,
  "\"(": 18109,
  "Ġmicro": 4580,
  "1984": 28296,
  "factor": 31412,
  "ĠGET": 17151,
  "Ġsaga": 26784,
  "Ġbrighter": 26083,
  "ĠBom": 20403,
  "Ġrelax": 8960,
  "Ġaides": 20163,
  "Ġunequal": 37334,
  "Ġlegality": 38209,
  "ĠServing": 49208,
  "Ġobst": 9710,
  "Ġdestroy": 4117,
  "Ġvending": 47254,
  "ĠBuffett": 36611,
  "ĠHappiness": 38456,
  "iox": 12190,
  "Ġcommunist": 20555,
  "guide": 41311,
  "ĠkW": 50223,
  "ĠMazda": 39671,
  "Ġcertificate": 10703,
  "ĠGHz": 26499,
  "ĠParticip": 13928,
  "Ġreports": 3136,
  "ĠIncarn": 39919,
  "Buff": 36474,
  "ĠJae": 34521,
  "encia": 29634,
  "Ġpale": 14005,
  "oodle": 27106,
  "jew": 47483,
  "Ġsorcery": 47815,
  "Ġrod": 15299,
  "Ġorbit": 13066,
  "Asia": 38555,
  "Elsa": 49050,
  "ĠPACs": 43838,
  "ring": 1806,
  "Mexico": 33006,
  "Ġmoistur": 41189,
  "him": 38400,
  "ĠKN": 22466,
  "Ġslurs": 44981,
  "Ġdatabases": 20083,
  "Ġsumm": 30114,
  "ubric": 29812,
  "86": 4521,
  "Ġheadache": 24902,
  "Ġpour": 12797,
  "Ġinterpersonal": 43146,
  "Ġyea": 44642,
  "ĠPrize": 15895,
  "Ġattaches": 48262,
  "Ob": 5944,
  "Sun": 16012,
  "Ġineligible": 39538,
  "................": 4181,
  "ĠREPL": 45285,
  "Ġgeneric": 14276,
  "Ġluc": 17115,
  "ĠGujarat": 30311,
  "Ġadded": 2087,
  "Ġgambling": 19029,
  "Ġensures": 19047,
  "ĠAuthors": 46665,
  "Ġovercome": 10980,
  "463": 38380,
  "ĠHolland": 16070,
  ";;": 7665,
  "ĠNegro": 27115,
  "ĠEly": 45913,
  "Ġfather": 2988,
  "phis": 18691,
  "Ġbedrock": 47856,
  "oops": 44860,
  "Ġepic": 12191,
  "Everybody": 28172,
  "ĠCOVER": 47902,
  "Ġtin": 19783,
  "ĠPoll": 12868,
  "Ġ158": 24063,
  "Ġtheirs": 22021,
  "Sin": 46200,
  "Ġevil": 6181,
  "ĠSCP": 17527,
  "ĠCooper": 10382,
  "ym": 4948,
  "Ġbarric": 31853,
  "ĠY": 575,
  "Ġconsuming": 18587,
  "Ġsingular": 18032,
  "ĠFollowing": 14207,
  "ĠInstitution": 29426,
  "ĠEagle": 18456,
  "ĠPOP": 37586,
  "whe": 12491,
  "answer": 41484,
  "azed": 13865,
  "ĠSach": 20678,
  "adal": 31682,
  "lies": 13508,
  "psy": 13764,
  "Ultimately": 27212,
  "Ġapparatus": 21152,
  "Ġsweetness": 32073,
  "NV": 27159,
  "Ġdecomp": 38237,
  "warm": 31975,
  "ĠEnding": 43626,
  "Ġclothes": 8242,
  "ĠCPS": 32084,
  "Question": 24361,
  "Ġ0004": 38326,
  "ĠWiki": 13078,
  "Ġcoordinate": 20435,
  "adiq": 48687,
  ">]": 37981,
  "Ġexternal": 7097,
  "Ġmembers": 1866,
  "Ġhacks": 30445,
  "Ġphon": 32896,
  "Ġmilliseconds": 38694,
  "Ġsauces": 50134,
  "ĠFeaturing": 39778,
  "ĠBrune": 46070,
  "ĠBoom": 31824,
  "cosystem": 12541,
  "Dialog": 44204,
  "Ġbedrooms": 38529,
  ".\",": 33283,
  "'m": 1101,
  "misc": 44374,
  "arlane": 49344,
  "'.\"": 30827,
  "Ġformatted": 39559,
  "ĠGrade": 22653,
  "Kid": 48374,
  "Ġpowering": 43067,
  "ĠAwards": 15434,
  "ĠGeo": 32960,
  "qqa": 28794,
  "Ġgrap": 23360,
  "oons": 13022,
  "Ġinvests": 49862,
  "ULE": 24212,
  "ractive": 35587,
  "eches": 16672,
  "LOCK": 36840,
  "Ġwine": 8237,
  "Ġcheck": 2198,
  "Ġcart": 6383,
  "Ore": 41543,
  "ĠPlanned": 18451,
  "ĠComb": 14336,
  "Ġmother": 2802,
  "ĠCthulhu": 39316,
  "032": 49959,
  "ific": 811,
  "ĠDad": 17415,
  "ĠVirus": 40584,
  "xton": 22874,
  "Ġtuning": 24549,
  "Ġfocused": 5670,
  "Ni": 34153,
  "ĠShadows": 18037,
  "Ġposs": 1184,
  "former": 16354,
  "Ġensu": 29084,
  "Ġinvestigations": 10986,
  "gers": 5355,
  "izoph": 18115,
  "Ġhumorous": 36102,
  "Ġbit": 1643,
  "Ġjumped": 11687,
  "é¾": 11737,
  "Ġelder": 10550,
  "Ġdesc": 1715,
  "ched": 1740,
  "Ġgoose": 37246,
  "Ġempowering": 35917,
  "8": 23,
  "tips": 41315,
  "ThumbnailImage": 39142,
  "ĠDelhi": 12517,
  "Ġcelebrity": 16527,
  "Ġsubdiv": 45944,
  "Ġnihil": 49413,
  "ĠMarcos": 37033,
  "Ġdistinctly": 30911,
  "Ġmant": 24818,
  "Ġsans": 38078,
  "research": 34033,
  "INT": 12394,
  "Ġconditional": 26340,
  "Ġimpunity": 37610,
  "ipedia": 11151,
  "Ġcert": 5051,
  "Chuck": 44324,
  "Ġcontributes": 22625,
  "Ġsovere": 11833,
  "ÃŃs": 41200,
  "Ġloaded": 9639,
  "Ġreverence": 40380,
  "Ġairing": 31701,
  "post": 7353,
  "Org": 46808,
  "ĠOcean": 10692,
  "ĠLouise": 31774,
  "ĠHearthstone": 38615,
  "Ġrect": 13621,
  "il": 346,
  "ĠNah": 35201,
  "AMA": 25087,
  "Ġconfession": 24250,
  "Style": 21466,
  "Ġpeeled": 42617,
  "path": 6978,
  "bent": 46119,
  "ĠNike": 23817,
  "Ġ256": 17759,
  "ĠIndividual": 18629,
  "Ġincreasing": 3649,
  "çĶ": 18796,
  "Ġdecipher": 42790,
  "Ġled": 2957,
  "Ġtermination": 19883,
  "Ġbeverage": 24968,
  "Ġexacerbated": 38337,
  "gged": 11178,
  "Ġoverlooking": 34603,
  "ĠJupiter": 22721,
  "aker": 3110,
  "gan": 1030,
  "Account": 30116,
  "ĠWTO": 47074,
  "ĠSupporting": 44188,
  "ĠGTX": 12646,
  "Ġrepentance": 45893,
  "Ġfeast": 26951,
  "189": 23362,
  "urances": 31741,
  "Ġshoes": 10012,
  "Div": 24095,
  "ĠApplication": 15678,
  "ĠPresidential": 17471,
  "Ġinterpreting": 35391,
  "Ġpa": 14187,
  "boards": 12821,
  "Ġduties": 10741,
  "Ġenergetic": 26758,
  "Ġheadlights": 46783,
  "Ġhormonal": 36956,
  "ĠTim": 5045,
  "ĠTechnician": 46986,
  "prus": 26440,
  "MIC": 49884,
  "ervation": 13208,
  "ĠBravo": 38990,
  "Ġscript": 4226,
  "ĠSneak": 49475,
  "serial": 46911,
  "916": 48894,
  "uning": 46493,
  "Ġside": 1735,
  "Ġdeceive": 38666,
  "Ġrecognition": 9465,
  "orted": 9741,
  "Move": 21774,
  "Ġmurderers": 38313,
  "Ġ1940": 16236,
  "Ġreservations": 24722,
  "Ġdictated": 34756,
  "ospital": 3531,
  "Ġmosquit": 33373,
  "ageddon": 33054,
  "AMY": 29428,
  "Ġpipes": 19860,
  "heard": 23636,
  "Poly": 34220,
  "ĠTru": 13616,
  "Ġseam": 15787,
  "Ġterrorism": 8649,
  "thy": 20057,
  "Ġ383": 49814,
  "âĨ": 29705,
  "Ġbip": 14141,
  "Muslims": 36452,
  "perate": 30052,
  "Ġmarquee": 50089,
  "Ġspike": 20240,
  "ceans": 19961,
  "Ġconducted": 5952,
  "Ġbeing": 852,
  "ternal": 4358,
  "ĠPrayer": 33189,
  "Dig": 19511,
  "ĠDesmond": 41045,
  "Ġpatent": 12701,
  "ĠDemocrats": 4956,
  "Ġfou": 46287,
  "server": 15388,
  "Ġcrater": 32593,
  "Ġtolerance": 15621,
  "Ġresembles": 22960,
  "aj": 1228,
  "SAM": 49302,
  "Ġlegendary": 13273,
  "Italian": 45696,
  "Ġsignaling": 22049,
  "ara": 3301,
  "ĠMell": 32993,
  "Ġnegative": 4633,
  "Ġhourly": 30160,
  "Ġstrike": 5587,
  "ĠRel": 4718,
  "Nov": 20795,
  "ĠDet": 4614,
  "args": 22046,
  "ockey": 8337,
  "ĠStick": 22994,
  "Ġalt": 5988,
  "Ġremovable": 35973,
  "ving": 1075,
  "Ġfrontline": 44956,
  "ĠPOW": 24148,
  "ĠSetTextColor": 45003,
  "ĠNYT": 47243,
  "elling": 9417,
  "Ġcontrary": 10388,
  "ĠSD": 9834,
  "alted": 29590,
  "elines": 20655,
  "011": 28555,
  "Ġpanc": 22154,
  "ayne": 43906,
  "ĠTIME": 20460,
  "Ġbee": 20697,
  "Ġmessenger": 31228,
  "56": 3980,
  "ottesville": 23806,
  "ĠHTTP": 14626,
  "538": 49561,
  "Ġbumper": 32228,
  "ĠFrame": 25184,
  "legged": 40898,
  "ll": 297,
  "ogg": 10332,
  "bender": 45666,
  "ĠZam": 38343,
  "759": 38314,
  "ography": 4867,
  "ĠEas": 38647,
  "ĠFAM": 42129,
  "Ġ357": 45210,
  "Lt": 49578,
  "ĠWalter": 15819,
  "ĠWilliams": 6484,
  "Ġservants": 17523,
  "Ġattend": 5262,
  "atus": 7240,
  "Austin": 40245,
  "Ġembodied": 34413,
  "ĠJuventus": 40912,
  "Ġstature": 32600,
  "Ġpolitely": 34313,
  "Pocket": 45454,
  "č": 201,
  "Ġsticky": 23408,
  "Transaction": 48720,
  "Ġprayers": 15707,
  "ĠSnapdragon": 39508,
  "Ġprohibits": 24059,
  "Ġsshd": 49249,
  "Ġtransf": 13501,
  "ĠRA": 17926,
  "Ġmoving": 3867,
  "ĠSpeaking": 21393,
  "Ġbeetle": 45489,
  "Ġmelan": 34963,
  "otation": 14221,
  "Ġoverr": 23170,
  "315": 27936,
  "ĠSr": 21714,
  "ĠTorres": 27663,
  "ĠMothers": 49673,
  "ĠMunicip": 27338,
  "Ġimpat": 28189,
  "Ġbrute": 33908,
  "ĠForum": 14867,
  "NO": 15285,
  "Ġ20": 1160,
  "707": 24038,
  "Ġledger": 37208,
  "Ġcamping": 22498,
  "Ġurban": 7876,
  "Texas": 21607,
  "Ġmice": 10693,
  "Ġbarriers": 14725,
  "Ġaccumulated": 22425,
  "Ġhopped": 45230,
  "Arg": 28100,
  "ĠParks": 20604,
  "ĠYour": 3406,
  "ĠSug": 13691,
  "Ġdetailed": 6496,
  "Ġcardboard": 26819,
  "Putting": 46399,
  "Ġoccupancy": 42498,
  "ĠLost": 9164,
  "Ġ):": 15179,
  "center": 16159,
  "ĠFarn": 49230,
  "Ġamd": 39971,
  "SIZE": 33489,
  "BuyableInstoreAndOnline": 40242,
  "ocket": 5459,
  "usha": 46213,
  "uss": 1046,
  "ĠNasa": 48673,
  "grass": 29815,
  "Ġpsychotic": 37162,
  "itant": 23737,
  "ĠNob": 8140,
  "-$": 22799,
  "cas": 34004,
  "NetMessage": 25193,
  "Good": 10248,
  "Ġassassinate": 48327,
  "ĠLeBron": 24712,
  "Ġsecurely": 30835,
  "Ġscept": 30186,
  "history": 23569,
  "asc": 3372,
  "medical": 41693,
  "umbered": 26584,
  "HEAD": 37682,
  "usa": 22064,
  "ĠTwin": 14968,
  "Ġpurchases": 13339,
  "âĸĦ": 45786,
  "ĠNathaniel": 49536,
  "mortem": 46515,
  "antine": 29003,
  "guard": 14864,
  "Ġinitialize": 41216,
  "ĠMichel": 12386,
  "Ġmassac": 34622,
  "Ġsuperiority": 26883,
  "ĠCongratulations": 49185,
  "ĠDavid": 3271,
  "wind": 7972,
  "ĠHowever": 2102,
  "Ġeastern": 10183,
  "Ġprocessors": 20399,
  "Ġneighbors": 12020,
  "JUST": 25008,
  "Ġcourtroom": 24832,
  "Baltimore": 46139,
  "ges": 3212,
  "Ġextingu": 24995,
  "oglu": 49006,
  "ãĥīãĥ©": 19073,
  "bourne": 12544,
  "Comp": 7293,
  "ĠBrend": 19252,
  "ointment": 49805,
  "ãĤ§": 24806,
  "ĠYuri": 38450,
  "hene": 29473,
  "Ġbatch": 15458,
  "atorial": 21592,
  "Scient": 23010,
  "ĠWool": 24759,
  "ĠRAF": 28168,
  "ĠAgric": 15407,
  "ĠColbert": 31368,
  "Ġsponsoring": 42569,
  "Ġwheel": 7825,
  "Tony": 29387,
  "ĠTah": 26293,
  "ĠReloaded": 33114,
  "Ġdespair": 20234,
  "Ġhtt": 1841,
  "Ġteenage": 16330,
  "ensional": 37176,
  "Ġ950": 38384,
  "ĠDen": 5601,
  "GROUP": 46846,
  "ĠBri": 25866,
  "ĠOB": 25334,
  "Ġcontempor": 36081,
  "1027": 40403,
  "ĠPorts": 30824,
  "Ġping": 29400,
  "015": 25150,
  "ĠLIC": 38559,
  "046": 45438,
  "Ġfurry": 40857,
  "ĠTibet": 18910,
  "ĠElizabeth": 10674,
  "Ġtrip": 5296,
  "×": 147,
  "Ġvictorious": 31956,
  "Ġfilibuster": 38940,
  "Ġmixer": 33938,
  "Appearances": 47569,
  "RAM": 24115,
  "Ġcrosses": 24234,
  "LIST": 45849,
  "Ġscreenings": 41377,
  "Ġexhilar": 47029,
  "ĠSuc": 47352,
  "ĠâĢº": 37855,
  "ĠOkawaru": 43038,
  "Ġgrazing": 40470,
  "Ġeither": 2035,
  "ghost": 38933,
  "Prince": 35784,
  "ĠLIST": 39498,
  "Ġlabyrinth": 41553,
  "Ġworkflow": 30798,
  "anti": 17096,
  "Ġpostp": 21826,
  "Ġorganising": 46729,
  "777": 29331,
  "ĠPike": 29539,
  "TW": 34551,
  "Ġrepe": 3172,
  "naissance": 47090,
  "Ġstock": 4283,
  "Ġimpatient": 33440,
  "Ġindeed": 5600,
  "Gre": 43887,
  "ĠBrotherhood": 17987,
  "ĠCotton": 23915,
  "ĠAbdul": 23547,
  "Ġnomination": 11872,
  "iblical": 16897,
  "Ġswiftly": 23994,
  "to": 1462,
  "Ġfabrics": 39533,
  "Ġpictured": 17915,
  "ĠGeneva": 20552,
  "ĠAlbuquerque": 38633,
  "ttp": 29281,
  "ĠCurrent": 9236,
  "Ġfancy": 14996,
  "F": 37,
  "ĠWait": 16314,
  "aretz": 48338,
  "Opp": 27524,
  "GGGG": 25611,
  "ĠBoys": 17528,
  "Ġdeploying": 29682,
  "Ġcombined": 5929,
  "esa": 49183,
  "athan": 6696,
  "Ġshortcomings": 31731,
  "ĠPayPal": 22525,
  "Ġdiapers": 45162,
  "stic": 11268,
  "ĠSave": 12793,
  "ĠYeah": 9425,
  "ĠBoot": 18892,
  "ĠNewton": 17321,
  "Ġ1100": 36566,
  "things": 27971,
  "ĠClear": 11459,
  "Ġrecommendation": 15602,
  "Ġglean": 41881,
  "ĠBC": 11843,
  "orrect": 47315,
  "Ġdimension": 15793,
  "Ġbunker": 36892,
  "Ġstimulate": 26020,
  "ĠMill": 9212,
  "ĠJudging": 47024,
  "Ġreceiving": 6464,
  "ĠImpact": 17677,
  "ĠGazette": 38772,
  "ĠSTAR": 25424,
  "pins": 49556,
  "ĠQuinn": 16109,
  "ĠYao": 37826,
  "ĠUser": 11787,
  "Batman": 37039,
  "ĠProcessor": 32893,
  "itations": 20597,
  "uu": 12303,
  "Introdu": 15005,
  "ĠSco": 36179,
  "ĠEpiscopal": 48378,
  "Ġinsulted": 40102,
  "Ġmul": 35971,
  "isbury": 47967,
  "Ġrepresentation": 10552,
  "ometer": 15635,
  "ĠPlan": 5224,
  "Ġaccounting": 14317,
  "Ġfought": 8350,
  "ĠSailor": 45924,
  "Ġcapitalize": 35160,
  "Ġgroin": 42247,
  "endor": 18738,
  "\\'": 43054,
  "ĠSpice": 43537,
  "Ġperl": 48746,
  "mes": 6880,
  "agle": 19345,
  "ĠLimited": 15302,
  "ADVERTISEMENT": 19053,
  "ancer": 8250,
  "ĠAssociation": 5396,
  "ĠBuilding": 11819,
  "Ġenhanced": 13105,
  "sbm": 32310,
  "Ġraced": 32897,
  "gee": 29622,
  "Ġruthless": 29541,
  "Ġrude": 22066,
  "ĠSignificant": 49631,
  "Ġterr": 8812,
  "ĠAU": 27548,
  "average": 23913,
  "Ġslash": 24632,
  "Ġgreedy": 31828,
  "Ġcollapses": 35752,
  "Ġhockey": 12217,
  "bound": 7784,
  "ĠFnatic": 44704,
  "ussed": 29569,
  "ĠKirk": 13855,
  "ĠBits": 44733,
  "Ġrusher": 47608,
  "ĠHitler": 11908,
  "Ġoutraged": 27697,
  "urg": 3686,
  "Ġkingdoms": 41901,
  "Ġlim": 1761,
  "!?": 22857,
  "Ġ:=": 19039,
  "ĠSacramento": 19375,
  "ĠC": 327,
  "Ġclicks": 25785,
  "Ġtox": 8293,
  "427": 42363,
  "Ġmirac": 30352,
  "ĠBennett": 17468,
  "ĠValid": 48951,
  "ĠLavrov": 43991,
  "ĠGreeks": 25059,
  "Ġesteem": 42213,
  "Ġhottest": 26896,
  "ĠReagan": 12823,
  "Ġpend": 44017,
  "ĠProt": 5038,
  "ĠIndie": 31527,
  "ĠBre": 3719,
  "ĠFan": 13836,
  "kee": 11035,
  "Ġcounterterrorism": 36573,
  "Ġoriginating": 37962,
  "Ġencouraged": 10085,
  "Ġinitiating": 40150,
  "ĠManziel": 45843,
  "ĠWan": 33242,
  "ĠWr": 15634,
  "ĠMcCain": 14264,
  ":#": 43922,
  "ĠBD": 28023,
  "ĠHopkins": 21183,
  "export": 39344,
  "ump": 931,
  "ĠVernon": 27820,
  "Scroll": 29261,
  "Ġbaptized": 40357,
  "Ġninja": 37049,
  "Ġambitions": 22455,
  "38": 2548,
  "ĠDunk": 39303,
  "Ġ[[": 16410,
  "Ġsubreddit": 25163,
  "payment": 37301,
  "oward": 46138,
  "ĠBitcoin": 6185,
  "ĠBurst": 30635,
  "Ġice": 4771,
  "Nev": 43555,
  "Ġfolded": 24650,
  "Ġenhances": 32479,
  "ĠSean": 11465,
  "799": 45455,
  "Ġavoid": 3368,
  "Ġought": 10783,
  "Capture": 49630,
  "Ġmidterm": 44066,
  "istrates": 37909,
  "ĠStudies": 10422,
  "Ġcommencement": 32609,
  "Ġworsened": 44838,
  "Ġcele": 3879,
  "Ġbathing": 39153,
  "${": 38892,
  "Ġthesis": 21554,
  "ĠmL": 36226,
  "ĠIngredients": 33474,
  "ĠDunn": 30833,
  "Ġfirmly": 14245,
  "ree": 631,
  "ĠCrash": 23653,
  "Answer": 33706,
  "Ġadequately": 22668,
  "ĠStout": 40275,
  "ARY": 13153,
  "YN": 40760,
  "Ġgenocide": 20744,
  "Ġbakery": 38164,
  "Ġha": 387,
  "Ġstaffed": 47331,
  "anners": 15672,
  "Ġrefuse": 11148,
  "Ġbypass": 17286,
  "Ġcognition": 31119,
  "ilee": 40626,
  "lines": 6615,
  "ĠBiol": 38637,
  "ĠSN": 11346,
  "Ġcrow": 37593,
  "ĠFrancis": 12155,
  "Ġadvis": 8503,
  "Ġcombos": 33510,
  "ĠLines": 26299,
  "ĠPS": 6599,
  "onic": 9229,
  "Ġintervals": 20016,
  "rifice": 31932,
  "Ġchant": 33541,
  "Ġoffense": 6907,
  "ĠGal": 5027,
  "Ġrefine": 35139,
  "zie": 49746,
  "Ġfragments": 21441,
  "Len": 30659,
  "Ġsupers": 22754,
  "Ġtheorem": 44728,
  "Kh": 33155,
  "ĠSuarez": 39992,
  "ART": 7227,
  "Lyn": 37207,
  "material": 33665,
  "ĠLeague": 4041,
  "+,": 28200,
  "556": 37864,
  "ĠThroughout": 24581,
  "Ġpun": 4000,
  "iu": 16115,
  "roe": 20646,
  "Ġrepairing": 39005,
  "chev": 49916,
  "Ġdisciple": 35567,
  "Ġturn": 1210,
  "Fla": 47487,
  "Products": 48650,
  "Most": 6943,
  "Ġebook": 47179,
  "Ġapplications": 5479,
  "Ġinaugural": 26851,
  "Ġengagements": 40588,
  "ĠAcid": 27066,
  "Ġcommittees": 17460,
  "mallow": 42725,
  "ĠStress": 36957,
  "IF": 5064,
  "Ġrec": 664,
  "terrorism": 19541,
  "Ġmedications": 17638,
  "Ġrape": 7262,
  "Ġsoap": 19533,
  "Ġshredded": 37624,
  "Ġserpent": 33727,
  "ĠDruid": 32685,
  "Further": 13518,
  "Individual": 35392,
  "BSD": 21800,
  "ĠThey": 1119,
  "003": 11245,
  "ringe": 38229,
  "ĠSirius": 21795,
  "Ġcompetent": 19701,
  "Ġsoared": 35292,
  "ĠBart": 13167,
  "Ġweaponry": 28479,
  "ĠActivity": 24641,
  "Ġpaste": 17008,
  "ĠWidth": 38807,
  "ĠBr": 1709,
  "WB": 45607,
  "ĠTerra": 24118,
  "Ġnotably": 14660,
  "Ġnetwork": 3127,
  "ĠREL": 29749,
  "Pict": 21300,
  "Ġadjust": 4532,
  "Ġdonate": 16565,
  "ĠRemember": 11436,
  "Ġaborted": 46847,
  "ividually": 16335,
  "Release": 26362,
  "Ġcavern": 33932,
  "Ġinjecting": 41750,
  "Ġjuvenile": 21904,
  "Educ": 33380,
  "ĠHail": 42913,
  "outheastern": 27873,
  "ilot": 23439,
  "special": 20887,
  "Ġdiscont": 16141,
  "ĠThieves": 40392,
  "Ġresolves": 38709,
  "Ġentreprene": 11548,
  "ĠHunters": 31196,
  "Ġwhirlwind": 49676,
  "ĠDepth": 36350,
  "Ġcampaigned": 32853,
  "Ġshattering": 48883,
  "Ġprotesting": 23655,
  "ĠKling": 28638,
  "ĠHouth": 34271,
  "Ġamend": 13582,
  "Ġbusted": 36193,
  "ĠSyn": 16065,
  "ĠLiu": 18258,
  "ĠUT": 19255,
  "ĠDialogue": 34709,
  "Ġ213": 28658,
  "ĠClose": 13872,
  "ribed": 8725,
  "Ġpm": 9114,
  "Ġadorned": 41860,
  "olor": 45621,
  "definition": 46758,
  "ĠExplorer": 19142,
  "ellar": 14203,
  "Brandon": 45467,
  "typ": 28004,
  "Ġadding": 4375,
  "ĠCorey": 24154,
  "hp": 24831,
  "Ġ>>": 9609,
  "LGBT": 37701,
  "intestinal": 36387,
  "ĠVag": 37203,
  "ĠOD": 31245,
  "ute": 1133,
  "Ġhasn": 5818,
  "ĠAmin": 39869,
  "Ġendif": 45762,
  "Ġtumor": 22359,
  "olics": 19615,
  "ĠVentures": 41673,
  "attribute": 42348,
  "ĠAlph": 39805,
  "ĠRAW": 33782,
  "Ġlabel": 6167,
  "ĠHanna": 43766,
  "vel": 626,
  "Ever": 23921,
  "Ġcigarette": 17779,
  "inished": 30603,
  "Ġrich": 5527,
  "ĠMaritime": 45411,
  "Ġmc": 36650,
  "ĠMoto": 23049,
  "âĻ¦": 41298,
  "Ġvine": 17793,
  "ĠMahmoud": 38554,
  "These": 4711,
  "Monitor": 35479,
  "odus": 21878,
  "pty": 5835,
  "Ġdetermin": 3416,
  "Ġreversible": 48287,
  "OC": 4503,
  "know": 16275,
  "Ġessays": 27126,
  "References": 19927,
  "ĠGor": 19097,
  "ettlement": 27331,
  "Ġrandomized": 23925,
  "Ġstatements": 6299,
  "Ġbipolar": 31170,
  "132": 19924,
  "BU": 19499,
  "Ġah": 29042,
  "ĠEchoes": 45547,
  "ĠBarber": 35338,
  "Ġsandwich": 20433,
  "bal": 6893,
  "ĠIan": 12930,
  "Ġhypoc": 33240,
  "ĠAnthrop": 32898,
  "Ġcostly": 16378,
  "ĠAhead": 40344,
  "Ġfree": 1479,
  "Ġsv": 38487,
  "Ġdome": 29500,
  "Six": 21447,
  "ECTION": 24565,
  "Eric": 25004,
  "Ġbackyard": 24296,
  "Ġsacrifice": 11728,
  "what": 10919,
  "Ġstar": 3491,
  "thereal": 37827,
  "Sensor": 47864,
  "ĠFriedman": 25865,
  "Ġimmobil": 47800,
  "ĠGall": 7096,
  "Ġteased": 35380,
  "Ġpanicked": 38225,
  "Ġcand": 2658,
  "Rich": 14868,
  "Ġterminal": 12094,
  "aed": 8432,
  "Ġegreg": 31954,
  "Ġornament": 45618,
  "Jeremy": 35623,
  "comb": 24011,
  "Ġhast": 19338,
  "Ġaccomplishment": 29340,
  "Ġperpetrators": 25185,
  "Ġentails": 35445,
  "anium": 15776,
  "ĠRig": 24666,
  "ĠRevolutionary": 28105,
  "Ġcheckpoint": 26954,
  "Ġinflicting": 45727,
  "evin": 6830,
  "Ġprized": 37768,
  "ãĥĭ": 30165,
  "ĠSto": 22025,
  "Ġtunnels": 22642,
  "Ġreminder": 15438,
  "technology": 45503,
  "MAR": 40569,
  "sorry": 41599,
  "Ġpersever": 45712,
  "Ġprophet": 22298,
  "both": 16885,
  "Ġpowers": 5635,
  "Ġdeployment": 14833,
  "Ġrubbed": 31862,
  "ĠArthur": 13514,
  "Ġcrus": 25164,
  "ãģ¾": 30159,
  "Ġblockers": 43805,
  "friend": 6726,
  "Ġprovoking": 45625,
  "ĠMurphy": 14424,
  "ogging": 30853,
  "Ġreconstruct": 31081,
  "ĠIslands": 12010,
  "ĠAntarctic": 33149,
  "Ps": 12016,
  "Ġpress": 1803,
  "ration": 1358,
  "loving": 33983,
  "Ġfireball": 46816,
  "260": 21719,
  "wt": 46569,
  "ĠLevant": 42607,
  "Ġboredom": 43515,
  "ĠParables": 49409,
  "ĠAMER": 32617,
  "Rep": 6207,
  "apps": 18211,
  "monds": 42620,
  "angelo": 46525,
  "Ġinvested": 13356,
  "Technology": 44893,
  "Medium": 31205,
  "Ġxml": 35555,
  "phia": 8193,
  "ĠRelease": 13868,
  "Ġ1870": 37667,
  "Ġteamwork": 48424,
  "Ġnuts": 14380,
  "ò": 174,
  "Ġpegged": 48781,
  "Ġà¨": 42314,
  "Ġmargins": 20241,
  "Ġsniff": 26300,
  "Ġtweeted": 10830,
  "auga": 44718,
  "Ġwarmer": 23254,
  "Stream": 12124,
  "ĠEnix": 41361,
  "Ġincred": 4878,
  "Ġgenesis": 48861,
  "OVA": 41576,
  "Ġinept": 43891,
  "ĠKirst": 39700,
  "Ġstride": 33769,
  "Ġintercepted": 29842,
  "ĠDAR": 41649,
  "Ġlitter": 25359,
  "ĠSAP": 48323,
  "organ": 9971,
  "Ġsetting": 4634,
  "ĠâĢ¦": 3926,
  "Ġaforementioned": 20794,
  "Ġcooling": 15134,
  "Ġreef": 25088,
  "ĠTG": 44121,
  "ĠSOL": 36817,
  "Ġthick": 6546,
  "Ġcombination": 6087,
  "orters": 3816,
  "ĠSwedish": 14023,
  "ava": 4170,
  "ĠFactor": 27929,
  "wick": 16239,
  "ĠScor": 36191,
  "letcher": 29257,
  "Ġov": 19643,
  "ĠGym": 31187,
  "tub": 37995,
  "Ġcoup": 12092,
  "atcher": 34734,
  "Ġchoices": 7747,
  "ĠPhys": 8687,
  "atching": 19775,
  "fashioned": 28776,
  "Met": 9171,
  "hus": 7537,
  "Ġvets": 45024,
  "ĠInterestingly": 25044,
  "Howard": 32434,
  "Ġrequisite": 37088,
  "Ġcharact": 1543,
  "Ġstars": 5788,
  "]),": 46570,
  "ĠTier": 15917,
  "ormal": 6636,
  "ribute": 4163,
  "akedown": 25817,
  "tail": 13199,
  "Ġcaf": 19945,
  "ĠFemale": 15396,
  "Ġinqu": 7949,
  "Ġswayed": 47632,
  "humane": 44766,
  "igil": 27187,
  "Tap": 45081,
  "ĠCincinnati": 16137,
  "Ġimpose": 13551,
  "ĠCly": 29133,
  "ĠBeautiful": 23762,
  "Ġstory": 1621,
  "untu": 11157,
  "ĠAriel": 33364,
  "Ġlaying": 16299,
  "ĠWhatsApp": 37666,
  "Ġunaccompanied": 47146,
  "Oper": 18843,
  "Ġpract": 1970,
  "Ġpregnant": 10423,
  "Ġsuicides": 32776,
  "ĠPont": 26345,
  "Ġclothed": 45361,
  "Dream": 30571,
  "Ġfreezing": 20884,
  "Ġrecreational": 18136,
  "Ġsings": 33041,
  "Ġreckon": 43851,
  "Ġpurple": 14032,
  ";\"": 26033,
  "Ġsubstances": 15938,
  "ĠKaw": 23043,
  "Ã§a": 50041,
  "Ġdumb": 13526,
  "Ġresistance": 6625,
  "âĸĳâĸĳ": 27534,
  "odcast": 7107,
  "Ĝ": 216,
  "Get": 3855,
  "Topic": 33221,
  "ĠSor": 15423,
  "ĠLug": 31541,
  "ĠAlonso": 36345,
  "âĸĢ": 44033,
  "Ġimpact": 2928,
  "Ġdiagonal": 40039,
  "Ġtasks": 8861,
  "ĠSo": 1406,
  "ĠStyles": 44963,
  "Ġnecessities": 41918,
  "Ġmoot": 41264,
  "ĠIG": 35336,
  "Ġmicrobiota": 42784,
  "changed": 40985,
  "cell": 3846,
  "idad": 32482,
  "Ġraging": 30082,
  "ivism": 25085,
  "Ġ2010": 3050,
  "Ġsubmit": 9199,
  "selected": 34213,
  "lins": 21602,
  "ĠSequence": 45835,
  "ĠRatings": 36826,
  "christ": 43533,
  "Ġattorneys": 14449,
  "ĠClimate": 13963,
  "Ġceiling": 13387,
  "Ġspying": 23649,
  "omm": 2002,
  "owered": 10387,
  "col": 4033,
  "osp": 2117,
  "Ġcaution": 13041,
  "237": 24693,
  "rm": 26224,
  "ĠChampions": 6662,
  "direction": 37295,
  "Overview": 29064,
  "Care": 17784,
  "thood": 12951,
  "ĠBeetle": 47464,
  "ĠMusical": 33375,
  "Ġanytime": 17949,
  "ĠSAL": 42475,
  "ĠComedy": 22329,
  "ĠBYU": 37216,
  "requency": 28707,
  "Ġbegun": 9258,
  "Ġrept": 28761,
  "ĠJan": 2365,
  "uper": 48568,
  "Ġtranscend": 26231,
  "Ġpork": 18128,
  "Ġsplendid": 37196,
  "ĠVideo": 7623,
  "vol": 10396,
  "Ġpu": 47574,
  "Ġolds": 44979,
  "Ġanesthesia": 49592,
  "viks": 45901,
  "romy": 50228,
  "Ġask": 1265,
  "Ġ268": 36678,
  "etts": 9357,
  "Bush": 36113,
  "Ġtire": 15867,
  "ĠGale": 36483,
  "eight": 26022,
  "Ġorganization": 4009,
  "Ġpioneered": 43185,
  "Ġintroduced": 5495,
  "THING": 39356,
  "trigger": 46284,
  "ĠAVG": 35224,
  "ĠCrossRef": 42750,
  "ĠSH": 6006,
  "ĠHardy": 27583,
  "Ġplay": 711,
  "Ġlocale": 36693,
  "Hour": 43223,
  "Ġpossess": 8588,
  "izer": 7509,
  "df": 7568,
  "Ġcenters": 10399,
  "Ġdormant": 41038,
  "ĠBob": 5811,
  "Ġ365": 21268,
  "ĠCha": 20703,
  "Ġpenetration": 23271,
  "Ġprovider": 10131,
  "ĠWarn": 39567,
  "ĠHugo": 25930,
  "ĠCarbuncle": 35818,
  "yg": 35641,
  "ĠMar": 1526,
  "Ġrental": 14447,
  "Ġdiffere": 980,
  "ĠOkinawa": 47221,
  "core": 7295,
  "Ġwake": 7765,
  "Ġnotified": 17600,
  "IES": 11015,
  "Ġblaster": 48131,
  "Ġom": 39030,
  "otonin": 29613,
  "Ġnightclub": 26617,
  "ODUCT": 28644,
  "ulp": 29528,
  "Ġrightfully": 41802,
  "================": 4770,
  "Privacy": 48948,
  "ruct": 1356,
  "ĠAvalanche": 39372,
  "Ġgirlfriends": 47094,
  "ĠIncreases": 23920,
  "Ġillness": 8526,
  "bnb": 31971,
  "Ġdealers": 15737,
  "Ġbitterness": 35987,
  "Ġintakes": 42219,
  "Ġinvent": 8067,
  "Ġalthough": 3584,
  "ĠFund": 7557,
  "Ġdifferentiation": 32488,
  "Ġtallest": 38760,
  "bass": 42933,
  "sell": 7255,
  "ĠHemp": 50060,
  "Ð¼": 43108,
  "ĠSERV": 42887,
  "ĠNero": 46810,
  "Ġanonymity": 18685,
  "Neg": 32863,
  "Ġconsistently": 9835,
  "ĠVale": 31832,
  "rers": 27736,
  "Ġcommercial": 5068,
  "intel": 48779,
  "Ġhearings": 18921,
  "redd": 26504,
  "ymes": 22009,
  "ĠFlavoring": 49813,
  "Ġbegins": 6140,
  "rotein": 35574,
  "ICA": 25241,
  "ĠDart": 29032,
  "their": 24571,
  "ĠCarrie": 32462,
  "Ġlegends": 24901,
  "ĠDonna": 29216,
  "Mars": 43725,
  "rament": 15141,
  "Ġrelegated": 36391,
  "Ġparse": 21136,
  "ĠLives": 18965,
  "igible": 26032,
  "Ġdeflation": 46507,
  "408": 26200,
  "Ġsevered": 32160,
  "luaj": 36473,
  "Ġtwitter": 17044,
  "ĠCasey": 21097,
  "Pet": 25803,
  "ĠSTOP": 44934,
  "izable": 13821,
  "ĠR": 371,
  "Ġshirt": 10147,
  "Ġevidently": 27450,
  "Ġlevied": 43383,
  "ĠEntityItem": 49731,
  "Ġdepleted": 34069,
  "orable": 10475,
  "Ġpaved": 31285,
  "Ġup": 510,
  "Ġcerebral": 31169,
  "Ġfroze": 37785,
  "Ġlace": 35938,
  "cons": 5936,
  "Ġaffordability": 38981,
  "Introduction": 21906,
  "Ġitiner": 45142,
  "length": 13664,
  "Ġalleg": 2868,
  "istant": 10167,
  "enabled": 25616,
  "Ġtandem": 32969,
  "ĠErrors": 44225,
  "Ġtheor": 18765,
  "ĠEdgar": 29166,
  "ĠLongh": 47513,
  "Ġmediation": 41077,
  "ĠItem": 9097,
  "Specifically": 48379,
  "clipse": 17043,
  "Ġscenes": 8188,
  "160": 14198,
  "uba": 22013,
  "Ġbloated": 45709,
  "Ġdropped": 5710,
  "Ġ[+": 26076,
  "Ġditch": 30115,
  "Ġfacts": 6419,
  "ÃįÃį": 43569,
  "Ġliquor": 20030,
  "Ġwarn": 9828,
  "Ġport": 2493,
  "Ġpractically": 14547,
  "ĠHegel": 38106,
  "ĠOliv": 40019,
  "Ġfuck": 5089,
  "ĠBos": 14548,
  "ĠSIGN": 36771,
  "ĠBul": 8510,
  "ĠMaryland": 10769,
  "Spain": 45355,
  "ifiable": 16823,
  "osite": 5971,
  "Ġscare": 19437,
  "ĠExamination": 50105,
  "AB": 6242,
  "ĠTrip": 18383,
  "erial": 48499,
  "Ġmotivation": 14052,
  "lesiastical": 46360,
  "Ġflatt": 27172,
  "ĠIBM": 19764,
  "º": 118,
  "Ġutilize": 17624,
  "din": 25194,
  "Rogue": 48163,
  "ĠMub": 40052,
  "Ġnorth": 5093,
  "vich": 49547,
  "Visual": 36259,
  "Ġbinding": 12765,
  "ivery": 6315,
  "ĠAllah": 11475,
  "ĠWik": 11145,
  "Ġsmelled": 37609,
  "Ġscholarship": 18652,
  "Ġemot": 4085,
  "base": 8692,
  "ĠPuppet": 34447,
  "Ġfronts": 29324,
  "Yeah": 10995,
  "bed": 3077,
  "ė": 211,
  "Ġabol": 14975,
  "Ġvo": 7608,
  "Ġgirls": 4813,
  "Ġbystand": 33326,
  "ĠFull": 6462,
  "lez": 36858,
  "ĠTABLE": 43679,
  "ĠItemLevel": 34448,
  "ĠBELOW": 45339,
  "ĠDoors": 33775,
  "Ġprocessor": 12649,
  "ĠFAT": 47200,
  "Ġtrends": 11257,
  "Exception": 16922,
  "Ġcust": 9378,
  "isa": 9160,
  "Ġindef": 16536,
  "ĠOTHER": 25401,
  "ivist": 30944,
  "ento": 50217,
  "ĠDe": 1024,
  "Ġrag": 34232,
  "Ġsweeps": 46778,
  "ĠVII": 19691,
  "Â¯": 5196,
  "linear": 29127,
  "Ġsusceptible": 22084,
  "Ġembattled": 49118,
  "Ġcos": 8615,
  "ĠSoldier": 20104,
  "Ġcapital": 3139,
  "Ġjohn": 45610,
  "Ġdomin": 7462,
  "-\"": 21215,
  "ĠVIS": 50035,
  "Ġsew": 34249,
  "Ġspecialization": 43135,
  "ĠMillennium": 26139,
  "bos": 39565,
  "Ġrenewal": 22901,
  "Ġsands": 30959,
  "lex": 2588,
  "Ġprivat": 21883,
  "ategory": 11606,
  "ĠKry": 41662,
  "Bre": 12679,
  "Ġshorten": 45381,
  "Ġimpressive": 8036,
  "Ġbc": 47125,
  "Clinton": 16549,
  "Ġmalice": 41962,
  "ĠRudolph": 48684,
  "ablishment": 25380,
  "ĠPosts": 12043,
  "auna": 32837,
  "National": 16186,
  "ĠExtended": 24204,
  "riots": 44447,
  "Ġcircled": 48149,
  "Usage": 28350,
  "Ġrecommendations": 10763,
  "Ġrebuilt": 30080,
  "ĠCONC": 39962,
  "Ġdamn": 12270,
  "Ġfolk": 15504,
  "Ã¶r": 30570,
  "posure": 26205,
  "Ġtissues": 21379,
  "Ġalleges": 24763,
  "Ġ1972": 16101,
  "Fer": 43362,
  "Ġhealthier": 22841,
  "Ġhypnot": 36580,
  "APE": 45721,
  "ĠWash": 22892,
  "PDF": 20456,
  "ĠUnified": 42225,
  "ĠPanthers": 17782,
  "ö": 178,
  "ĠRacer": 39359,
  "Ġawake": 21693,
  "items": 23814,
  "Ġsuperv": 29745,
  "Ġ10000": 33028,
  "ĠSolo": 20284,
  "gotten": 21646,
  "ĠClippers": 28564,
  "ĠRiverside": 35597,
  "Ġrefriger": 19866,
  "ston": 3743,
  "ç¥ŀ": 15351,
  "ĠLover": 40414,
  "blogspot": 35217,
  "accompanied": 42588,
  "ĠStruggle": 49460,
  "ĠEb": 12119,
  "Finish": 48658,
  "Ġterrain": 15510,
  "Ġstarship": 48744,
  "Ġvm": 45887,
  "ĠBreaker": 44478,
  "Ġswearing": 38372,
  "Ġprotects": 17289,
  "Vo": 42144,
  "ĠFlower": 20025,
  "ĠCONTIN": 43659,
  "ĠRegulation": 26472,
  "Ġcows": 22575,
  "Ġfault": 8046,
  "Ġencyclopedia": 45352,
  "Ġmemorandum": 34911,
  "Ġstorms": 20228,
  "Ġhole": 7604,
  "ĠMarino": 46043,
  "âĢĭâĢĭ": 39009,
  "Ġyour": 534,
  "ĠRTX": 45877,
  "ĠMob": 16540,
  "ĠCrab": 32379,
  "Ġservice": 2139,
  "lee": 7197,
  "Sat": 20245,
  "Ġbitch": 21551,
  "bable": 33460,
  "¹": 117,
  "ĠSakuya": 37545,
  "Ġtransformative": 43590,
  "Ġhosts": 11453,
  "383": 34741,
  "Ġmobs": 32208,
  "ĠDenver": 10656,
  "Ġbullshit": 20041,
  "autical": 37073,
  "ĠReduce": 44048,
  "Ġzeal": 27689,
  "Ġimmigrant": 15773,
  "ĠSuffolk": 45034,
  "Ġloading": 11046,
  "Ġtreaties": 30734,
  "ĠClarkson": 40524,
  "Ġslipping": 29612,
  "Ġchip": 11594,
  "Ġ[...]": 26894,
  "ĠMaple": 21249,
  "ĠCarol": 5074,
  "Ġcloaked": 45853,
  "Ġhacking": 15656,
  "Ġledge": 35614,
  "ĠHumanity": 35629,
  "ĠHastings": 38330,
  "ĠAvatar": 26703,
  "afa": 28485,
  "hin": 20079,
  "Ġferocious": 40831,
  "ĠBritain": 5491,
  "Ġundergraduate": 22952,
  "Ġdru": 37215,
  "Ġvener": 31299,
  "ĠTelegraph": 21821,
  "RH": 48587,
  "rehensible": 34718,
  "Ġdramas": 43972,
  "Ġprevail": 28615,
  "Ġlever": 17124,
  "Ġrefuge": 5473,
  "gets": 11407,
  "ĠSamantha": 34778,
  "Ġunbelievable": 24479,
  "Ġrearr": 37825,
  "intuitive": 42105,
  "onia": 11339,
  "Ġwarranty": 18215,
  "ĠWhen": 1649,
  "ĠSW": 12672,
  "Ġspider": 19230,
  "flow": 11125,
  "ĠGirl": 7430,
  "Ġintroducing": 16118,
  "Ġ122": 19409,
  "itative": 12464,
  "Arch": 19895,
  "wb": 39346,
  "ĠEmil": 44272,
  "Ġcheaply": 45858,
  "Ġlittle": 1310,
  "ĠKali": 30636,
  "handle": 28144,
  "oji": 31370,
  "Ġcontemplate": 39248,
  "oreAndOnline": 40240,
  "Ġcrews": 18936,
  "Ġfacilities": 7291,
  "ĠAlan": 12246,
  "Ġfountain": 29420,
  "Ġsuccumb": 33505,
  "ĠSlightly": 49365,
  "Ġslit": 40724,
  "aepernick": 28333,
  "259": 25191,
  "ĠMehran": 42558,
  "educated": 27317,
  "Ġyear": 614,
  "Ġpretending": 23662,
  "ĠMetal": 12136,
  "Ġpreservation": 22459,
  "anga": 16484,
  "ô": 176,
  "makers": 6620,
  "stals": 41076,
  "view": 1177,
  "ridge": 12818,
  "Ġrefill": 47539,
  "Ġshipment": 28652,
  "ĠSpray": 43536,
  "ĠAadhaar": 47727,
  "ĠTH": 2320,
  "Ġnavig": 20436,
  "ĠAnaheim": 31100,
  "^^": 18237,
  "ĠOlympic": 11514,
  "Pred": 39156,
  "Ġ1895": 46425,
  "boat": 24482,
  "Ġdisqualified": 40650,
  "Ġdie": 4656,
  "Ġsupernatural": 22239,
  "ĠBless": 49629,
  "492": 40256,
  "Ġtechnician": 33024,
  "ĠIranians": 34608,
  "æ©Ł": 49960,
  "='": 11639,
  "Ġfactor": 5766,
  "Ġexalted": 46683,
  "ĠBreed": 45958,
  "Ġcove": 25746,
  "Ġyields": 19299,
  "Ġman": 582,
  "Ġ@@": 25248,
  "Ġcyl": 17327,
  "SET": 28480,
  "Ġfrantic": 37644,
  "elt": 2120,
  "json": 17752,
  "Ġastronomical": 37209,
  "Ġgross": 10319,
  "å½": 37605,
  "Ġnitrogen": 23417,
  "Ġlevel": 1241,
  "Ġopposed": 6886,
  "Ġleaps": 37312,
  "ĠBritt": 26036,
  "ĠHiroshima": 42922,
  "Type": 6030,
  "ĠJuliet": 38201,
  "Ġelect": 1742,
  "Europe": 16112,
  "lete": 5807,
  "ĠEdmund": 35646,
  "Sadly": 36725,
  "Ġ----------------": 34400,
  "Ġhangs": 28087,
  "ĠKy": 11118,
  "Ġqualification": 28587,
  "approximately": 47498,
  "ĠNiÃ±o": 47931,
  "Ġterritorial": 22414,
  "adies": 50192,
  "Ġtechniques": 7605,
  "ush": 1530,
  "obb": 21963,
  "ĠBry": 9092,
  "Ġathletics": 35691,
  "Ġdare": 16498,
  "Ġorganisers": 43013,
  "Ġcollide": 46592,
  "Ġcounty": 7968,
  "ĠUP": 15958,
  "Ġtwenty": 8208,
  "shake": 32431,
  "Ġclues": 20195,
  "Ġcoll": 2927,
  "Ġexpansions": 36383,
  "oca": 11216,
  "Ġsauce": 10746,
  "Ġgran": 19468,
  "Ġfrontal": 30424,
  "pop": 12924,
  "Ġaudition": 31678,
  "Ġlax": 36919,
  "omever": 49784,
  "Course": 49046,
  "ĠKitchen": 22541,
  "Kings": 42912,
  "Major": 24206,
  "ĠHilbert": 47718,
  "ĠAberdeen": 44985,
  "nc": 10782,
  "ĠBlockchain": 29724,
  "Ġtickets": 8587,
  "Ġinst": 916,
  "ĠStrikes": 37836,
  "ĠMerchant": 33508,
  "Ct": 33707,
  "Ġemergency": 6334,
  "Ġdetected": 12326,
  "ĠPeggy": 40910,
  "util": 22602,
  "WORK": 33249,
  "aturday": 3658,
  "Back": 7282,
  "ĠStreet": 3530,
  "Need": 23037,
  "Ġrejects": 28317,
  "ĠLouisville": 21525,
  "/#": 31113,
  "Pokemon": 48034,
  "ag": 363,
  "ĠImprovement": 33764,
  "Ġdollars": 5054,
  "Ġasync": 30351,
  "Ġsneak": 20528,
  "Ġconnection": 4637,
  "ĠChuck": 14663,
  "ĠFahrenheit": 35935,
  "Talk": 25685,
  "Thomas": 22405,
  "ĠSoft": 8297,
  "SPONSORED": 37190,
  "Ġspecific": 2176,
  "ĠSwiss": 14780,
  "imony": 33969,
  "Crash": 47598,
  "ĠAAP": 31518,
  "Ġrainfall": 25807,
  "Ġdetailing": 22976,
  "iterator": 48727,
  "Ġsophistication": 44809,
  "Ġmog": 32985,
  "Art": 8001,
  "ienced": 26343,
  "girl": 15219,
  "Ġexplorers": 45531,
  "ĠGre": 11955,
  "TN": 46559,
  "Guard": 24502,
  "peace": 22988,
  "Ġschizophren": 19991,
  "Ġconglomerate": 50240,
  "Ø§Ø": 34247,
  "Ġstip": 22111,
  "Ġcliff": 19516,
  "éĹ": 29785,
  "ĠHats": 37934,
  "ĠAW": 14356,
  "106": 15801,
  "Ġmemoir": 24649,
  "ographs": 33492,
  "Holy": 33336,
  "ĠBottom": 24530,
  "ĠYin": 37201,
  "Ġago": 2084,
  "species": 35448,
  "Ġguard": 4860,
  "mobi": 43549,
  "Ġattent": 32649,
  "ĠHills": 14379,
  "462": 39997,
  "Ġbehave": 17438,
  "na": 2616,
  "ĠKyl": 39859,
  "IM": 3955,
  "Ġrefund": 12929,
  "Ġpointer": 17562,
  "èĢ": 32003,
  "Ġwrestling": 16381,
  "Ġacknowledge": 12127,
  "Ġprospects": 13285,
  "Ġdining": 17423,
  "Ġcouncillors": 43321,
  "bomb": 27657,
  "Ġrally": 7903,
  "tor": 13165,
  "dding": 33403,
  "mans": 16221,
  "DB": 11012,
  "Low": 20535,
  "Ġ1948": 21794,
  "Ġheartbeat": 36051,
  "Ġamounted": 30008,
  "ĠFore": 4558,
  "ĠLynd": 33561,
  "ĠPant": 11427,
  "Region": 47371,
  "inventoryQuantity": 39756,
  "Ġmatters": 6067,
  "Bi": 23286,
  "Ġclamp": 29405,
  "Ġinline": 26098,
  "ĠRequ": 9394,
  "ĠCU": 29369,
  "hz": 32179,
  "Ġwooden": 13510,
  "ĠTracy": 31140,
  "FT": 9792,
  "orus": 15125,
  "isoft": 29719,
  "pixel": 32515,
  "ĠJustin": 10799,
  "iscopal": 42522,
  "Ġtame": 37812,
  "Ġexamining": 17247,
  "Ġappropriation": 34503,
  "Us": 5842,
  "Ġclones": 32498,
  "Kind": 35854,
  "Ġbus": 1323,
  "Ġgarlic": 17644,
  "ĠSnapchat": 31546,
  "Ġtherap": 6987,
  "137": 19708,
  "ometimes": 6533,
  "nikov": 45451,
  "ĠBes": 30837,
  "gery": 7076,
  "ĠUCHIJ": 39253,
  "Child": 16424,
  "Ġpitch": 7078,
  "ĠSyracuse": 29141,
  "Ġpasta": 26296,
  "rants": 15087,
  "Ġtailored": 27571,
  "ember": 1491,
  "Ġtrivial": 20861,
  "81": 6659,
  "ĠPossibly": 43046,
  "Ġmotiv": 6556,
  "Ġfiance": 47819,
  "racist": 41131,
  "Ġtenets": 43820,
  "Ġlane": 11193,
  "collection": 43681,
  "ĠUnch": 34867,
  "yrus": 21180,
  "ĠCrus": 15170,
  "Ġcomplicity": 48234,
  "forcer": 45515,
  "Ġcasts": 26217,
  "eye": 25379,
  "crete": 38669,
  "ãĥĸ": 24001,
  "istani": 16688,
  "Ġinduct": 28948,
  "Ġminion": 28365,
  "Ġregress": 50252,
  "ĠWang": 15233,
  "Ġfigur": 31474,
  "Ġdisgu": 17360,
  "esty": 9673,
  "ĠUSD": 11403,
  "ĠEasy": 16789,
  "ĠFlorence": 28537,
  "Ġentitlement": 28963,
  "Ġ264": 32158,
  "Ġale": 31341,
  "Ġmoderately": 32611,
  "asure": 5015,
  "ĠSoup": 34011,
  "ĠClosed": 30550,
  "ĠNormal": 14435,
  "Ġset": 900,
  "Ġ08": 8487,
  "Ġtown": 3240,
  "ĠBeg": 47479,
  "Ġshall": 2236,
  "ĠWhich": 9022,
  "ĠãĤµ": 38390,
  "Ġphenomenal": 28187,
  "ĠCue": 40568,
  "cs": 6359,
  "Ġdyn": 37860,
  "isitions": 29593,
  "Ġtextures": 20028,
  "campaign": 35012,
  "ĠVeteran": 32733,
  "Ġambassadors": 41702,
  "Ġ?": 5633,
  "Ġcharism": 25348,
  "Ġunimaginable": 44446,
  "ĠRuler": 31808,
  "Filter": 22417,
  "379": 29088,
  "ĠHighland": 39874,
  "isl": 3044,
  "ĠCeleb": 35688,
  "Ġviewers": 10209,
  "Project": 16775,
  "Ġscalp": 39287,
  "Ġunsatisf": 39264,
  "ĠForsaken": 49116,
  "ĠSaid": 23885,
  "ĠGuru": 38749,
  "Ġ1840": 47784,
  "fig": 5647,
  "uties": 8249,
  "Ġtightening": 36040,
  "Ġattributed": 14183,
  "arations": 24355,
  "ennis": 10679,
  "Param": 22973,
  "Ġpouch": 36594,
  "ĠAthletic": 29007,
  "ĠConscious": 45595,
  "Ġeighty": 37516,
  "Che": 7376,
  "Disney": 37338,
  "alys": 26266,
  "do": 4598,
  "Ġentertaining": 17774,
  "Ġprize": 11596,
  "Qaeda": 19058,
  "Ġcriminally": 46657,
  "country": 19315,
  "Ġrespectively": 8148,
  "Ġenvironmental": 6142,
  "Ġdemocr": 5084,
  "ĠCant": 16821,
  "Ġroam": 35563,
  "lando": 11993,
  "ĠSao": 47040,
  "Los": 28903,
  "confirmed": 36349,
  "byter": 36204,
  "Ġatmosp": 6904,
  "ictionary": 14188,
  "oy": 726,
  "ĠLions": 14536,
  "uses": 2664,
  "Ġdespised": 44990,
  "Ġfiring": 9645,
  "Ġinund": 43431,
  "Ġ435": 42671,
  "Ġbounces": 49623,
  "Ġtowns": 11684,
  "Ġoutbreak": 17645,
  "ĠBayer": 48009,
  "ence": 594,
  "251": 28072,
  "ĠTWO": 35288,
  "Ġappet": 16422,
  "Ġgust": 35253,
  "Stand": 15480,
  "Ġrobotic": 25810,
  "Ġeffectiveness": 13530,
  "Ġlocalized": 36618,
  "ĠFoods": 23201,
  "Ġ698": 39861,
  "Ġimitation": 40260,
  "El": 9527,
  "ĠWARRANT": 34764,
  "Ġcivilians": 10380,
  "ĠSpeech": 24709,
  "Ġblindness": 37673,
  "ĠSyrian": 6318,
  "ĠBack": 5157,
  "Grey": 49141,
  "ĠJudy": 26395,
  "awan": 43004,
  "ĠPharma": 41845,
  "ĠVegas": 9621,
  "ĠReferred": 47361,
  "ited": 863,
  "cliffe": 33783,
  "Ġconsumes": 37225,
  "ĠSans": 20845,
  "ails": 1768,
  "ĠBrav": 32780,
  "ĠSoci": 31339,
  "Ġmills": 41999,
  "sung": 9854,
  "ĠCurious": 44269,
  "exper": 23100,
  "ĠSole": 37965,
  "Ġplus": 5556,
  "Ġmultiplication": 48473,
  "Published": 24492,
  "oci": 1733,
  "Ġgardening": 46072,
  "Ġsushi": 36324,
  "Ġunsur": 31035,
  "Ġaccelerated": 23312,
  "etsu": 30470,
  "Feature": 38816,
  "Ġgraduation": 21571,
  "Network": 26245,
  "ĠCK": 45233,
  "ds": 9310,
  "Ġcolony": 18815,
  "Ġnos": 43630,
  "Ġmetals": 21782,
  "ĠRent": 29832,
  "emort": 24466,
  "ppings": 37840,
  "ĠForever": 28285,
  "ĠAssignment": 50144,
  "Ġgastro": 33131,
  "Ġbrazen": 40033,
  "Ġquant": 5554,
  "Ġstamp": 17977,
  "ĠAntarctica": 30185,
  "ĠCombined": 32028,
  "ĠRamadan": 37604,
  "ĠSimple": 17427,
  "antic": 5109,
  "Pick": 31686,
  "Ġfright": 12773,
  "FREE": 39274,
  "ilings": 43271,
  "Ġbreastfeeding": 32613,
  "Ġblurred": 38258,
  "ophys": 39665,
  "ĠGenetics": 43574,
  "terson": 23192,
  "metics": 27757,
  "ĠSeptember": 2693,
  "Ġjammed": 45479,
  "ĠSea": 6896,
  "ĠSUB": 28932,
  "Before": 8421,
  "Ġsubstituted": 31601,
  "Ġpages": 5468,
  "Ġdel": 1619,
  "Ġranges": 16069,
  "ĠBEST": 38502,
  "Ġ2000": 4751,
  "Ġathletes": 10856,
  "ĠRestaur": 22463,
  "Ġprimed": 46959,
  "Ġoffensively": 41774,
  "Ġlouder": 27089,
  "Ġcolours": 18915,
  "ĠSurvey": 13084,
  "ĠSu": 1778,
  "physical": 42854,
  "Ġem": 795,
  "ĠInstitutes": 33656,
  "Allah": 48620,
  "oom": 4207,
  "ĠCharleston": 26070,
  "Ġhitter": 30858,
  "Houston": 33387,
  "Ġpubs": 46972,
  "imei": 45519,
  "Ġtravelers": 23325,
  "ĠStage": 15371,
  "nm": 21533,
  "aver": 8770,
  "Said": 47638,
  "ãĥĵ": 36922,
  "chn": 1349,
  "Ġborough": 33534,
  "Ġsens": 3054,
  "Ġvarying": 15874,
  "Ġfraternity": 32474,
  "ĠTrailer": 36923,
  "gru": 48929,
  "intention": 40867,
  "äºĶ": 49390,
  "ĠTail": 21759,
  "Ġethics": 14458,
  "ĠTBD": 34343,
  "ogeneous": 32269,
  "slaught": 30929,
  "Trump": 6170,
  "arrow": 6018,
  "Ġproceeding": 18788,
  "Ġarmy": 5428,
  "Ġquery": 12405,
  "Ġtransient": 32361,
  "Ġadmitted": 6848,
  "ĠGaw": 30187,
  "goal": 35231,
  "Ġpressed": 12070,
  "Ġ(-": 13841,
  "ĠAuckland": 30422,
  "Ġcoast": 7051,
  "acher": 3493,
  "ĠGU": 19348,
  "major": 22478,
  "Ġlash": 46967,
  "ĠEssential": 36294,
  "Ġ351": 44417,
  "lett": 15503,
  "467": 24669,
  "ĠKol": 25910,
  "Ġcoughing": 48308,
  "Ġholistic": 42923,
  "ess": 408,
  "Ġsuccumbed": 47290,
  "Ġboost": 5750,
  "ĠRestore": 42019,
  "Ġreconciliation": 27515,
  "ĠVIII": 25197,
  "Ġsynonymous": 33271,
  "Ġsubsidy": 28646,
  "ĠEarthquake": 45591,
  "Starting": 22851,
  "Ġfocal": 25397,
  "lishing": 20020,
  "Ġhaha": 42254,
  "Loc": 33711,
  "Ġ1971": 16382,
  "Ġcongen": 41174,
  "ĠDoc": 14432,
  "ĠÂ»": 13355,
  "Ġremoval": 9934,
  "Ġdeceptive": 34036,
  "ĠPOWER": 40295,
  "Ġgazing": 50234,
  "aut": 2306,
  "iba": 23718,
  "ĠAccount": 10781,
  "ĠAnarchy": 38899,
  "arc": 5605,
  "ĠLiver": 45036,
  "Ġstep": 2239,
  "ĠDeck": 20961,
  "without": 19419,
  "INGS": 20754,
  "Ġchau": 46901,
  "anan": 27870,
  "Ġhopping": 47153,
  "Ġtexting": 36634,
  "cÃ©": 32682,
  "Ġaback": 50147,
  "ĠBog": 21555,
  "Ġolder": 4697,
  "ĠPubMed": 32131,
  "ĠPreferred": 31278,
  "Ġpony": 26902,
  "Ġmeager": 49853,
  "Ġprohibitions": 49724,
  "Detroit": 40404,
  "Ġburying": 48360,
  "mination": 17928,
  "oon": 2049,
  "ĠQC": 36070,
  "anty": 46098,
  "Ġcontract": 2775,
  "Ġhurdle": 36633,
  "RS": 6998,
  "asso": 28372,
  "lights": 8091,
  "ĠStephenson": 42838,
  "Beyond": 24102,
  "ĠMoments": 45209,
  "ifer": 7087,
  "Ġbite": 13197,
  "arton": 41328,
  "ful": 913,
  "Ġbending": 30808,
  "Ġcohorts": 40182,
  "ague": 2064,
  "Ġsuggesting": 9524,
  "LU": 41596,
  "ĠPlat": 32715,
  "Ġclaw": 26573,
  "Ġresp": 1217,
  "Ġcrimson": 46153,
  "ĠFeb": 3158,
  "Ġdangerous": 4923,
  "Land": 22342,
  "ĠShah": 18381,
  "Ġdolphin": 44136,
  "ĠFuel": 25483,
  "chool": 1251,
  "Ġspurred": 34601,
  "Ġwrites": 6797,
  "Ġpersistent": 16218,
  "Ġpredicts": 26334,
  "ĠWithin": 12511,
  "tenance": 8219,
  "shape": 43358,
  "venants": 43773,
  "cars": 37993,
  "Ġfoundations": 19369,
  "ĠNevertheless": 15933,
  "Ġtreasures": 29561,
  "Ġliberty": 12354,
  "crafted": 39160,
  "Script": 7391,
  "Seg": 41030,
  "Ġframework": 9355,
  "Ġdys": 13147,
  "Ġteeth": 9941,
  "Ġsubdued": 38759,
  "Ð¾Ð": 25443,
  "Ġoutl": 41528,
  "osi": 21707,
  "ģ": 223,
  "Ġgigantic": 24804,
  "ample": 1403,
  "endants": 30841,
  "iences": 10035,
  "onna": 6415,
  "Ġpt": 42975,
  "KE": 7336,
  "acre": 12345,
  "Ġinstrumental": 21543,
  "ainers": 50221,
  "Ġ6": 718,
  "Ġjudiciary": 30461,
  "ITAL": 40579,
  "ĠDemocr": 2459,
  "Row": 25166,
  "ĠBrid": 28320,
  "Ġwatchdog": 26856,
  "ĠDeaths": 37044,
  "74": 4524,
  "borough": 17913,
  "ĠNam": 17871,
  "),": 828,
  "alan": 25786,
  "Ġyoga": 20351,
  "lees": 49410,
  "environment": 38986,
  "Buy": 14518,
  "Ġspo": 15106,
  "Ġstrife": 39809,
  "Ġcallback": 23838,
  "Ġrespir": 21483,
  "Ġtrolling": 38098,
  "ĠUnic": 21237,
  "Ġtooth": 16162,
  "Sep": 19117,
  "downs": 30371,
  "olate": 27976,
  "Ġdismal": 39656,
  "Ġdrummer": 34269,
  "Ġchemist": 47898,
  "iant": 3014,
  "Ġ×": 14360,
  "Ġgun": 2485,
  "Clock": 44758,
  "ĠNigeria": 19398,
  "amas": 17485,
  "eness": 9449,
  "ĠHerb": 34858,
  "Ġmargin": 10330,
  "ĠHyundai": 47962,
  "female": 24724,
  "Ġresponsibilities": 15171,
  "ĠGrac": 38099,
  "za": 4496,
  "Ġgenus": 34306,
  "cffff": 31727,
  "Ġfooled": 35820,
  "StreamerBot": 37574,
  "à¼": 41340,
  "Ġmanic": 38705,
  "ĠChallenges": 44495,
  "ĠShay": 34760,
  "ĠBake": 38493,
  "ĠDisplay": 16531,
  "Gy": 44802,
  "Ġ1992": 9768,
  "assemb": 34455,
  "HM": 36905,
  "612": 43610,
  "ĠBF": 41646,
  "Ġcatering": 39211,
  "ĠBehavioral": 38483,
  "WARD": 39743,
  "ĠPerfect": 16374,
  "Ġapocalyptic": 41792,
  "ĠEyes": 18301,
  "SF": 20802,
  "ĠLann": 39004,
  "endment": 5904,
  "ĠUKIP": 37809,
  "ĠPly": 36526,
  "Ġinjustice": 21942,
  "Ġfi": 25912,
  "Ġscaling": 20796,
  "Ġshares": 7303,
  "Ġdisgust": 16234,
  "ĠVictory": 21203,
  "area": 20337,
  "daq": 48539,
  "ifix": 42169,
  "ĠKro": 30088,
  "Ġapproaching": 13885,
  "ĠFIX": 44855,
  "Ġherbs": 25411,
  "ĠProductions": 25315,
  "Ġworkings": 35084,
  "hom": 26452,
  "Ġtr": 491,
  "âĢĵâĢĵ": 25608,
  "ĠFrom": 3574,
  "count": 9127,
  "Ġmaze": 31237,
  "ĠReaper": 29245,
  "ĠSenator": 8962,
  "Rog": 30417,
  "Ġhawk": 48710,
  "absolute": 48546,
  "ĠEMS": 41363,
  "ois": 10924,
  "Ġinvented": 15646,
  "Ġwheat": 17135,
  "DOS": 35178,
  "Ġfacilitating": 36045,
  "Bec": 39649,
  "ĠPerhaps": 8673,
  "ĠAwoken": 8755,
  "riot": 36671,
  "Asian": 43224,
  "Ġpetitioner": 39741,
  "acle": 6008,
  "Ġmathematics": 19473,
  "Ġ321": 39595,
  "orney": 4195,
  "Ġprosec": 19306,
  "Cert": 37608,
  "drops": 49253,
  "ĠMilo": 32662,
  "edged": 48916,
  "Ġtroubling": 20294,
  "UID": 27586,
  "assisted": 42191,
  "essler": 33730,
  "Ġclerks": 44115,
  "ĠRiv": 34686,
  "ĠCompton": 47062,
  "fleet": 33559,
  "Ġcanopy": 39418,
  "annah": 25761,
  "Ġorchestr": 28127,
  "ĠJihad": 35243,
  "Ġchipset": 49013,
  "ĠBegin": 16623,
  "ĠChel": 11425,
  "ĠChargers": 23559,
  "ĠGoogle": 3012,
  "edar": 44226,
  "Ġdeletion": 39948,
  "ĠDR": 10560,
  "Ġfurious": 21799,
  "Ïģ": 33643,
  "brand": 17938,
  "Ġpaperback": 46771,
  "Ġthreats": 7432,
  "Ġemerged": 9349,
  "Ġprinces": 42676,
  "ĠMine": 11517,
  "breeding": 49705,
  "Ġassailants": 49690,
  "990": 34155,
  "Ġwhipping": 44637,
  "resents": 6629,
  "Ġorganize": 16481,
  "Ġbanished": 43926,
  "Ġluxurious": 35985,
  "pace": 10223,
  "nee": 21381,
  "ĠHendricks": 42476,
  "Ġcasing": 39731,
  "regular": 16338,
  "Ġtextbook": 28979,
  "Ġalley": 23978,
  "ard": 446,
  "Iran": 23798,
  "onz": 13569,
  "ĠRoosevelt": 19297,
  "ington": 9557,
  "ĠDID": 35697,
  "Ġglim": 16323,
  "rade": 27585,
  "522": 49542,
  "uality": 25775,
  "indle": 42343,
  "Ġspeeding": 26347,
  "Ġsubst": 3293,
  "module": 21412,
  "authorized": 19721,
  "Ġ322": 38831,
  "Ġfinger": 7660,
  "links": 28751,
  "436": 43690,
  "Ġfundra": 12663,
  "ĠObj": 38764,
  "ĠMercy": 30759,
  "strip": 36311,
  "Ġreflections": 35066,
  "LL": 3069,
  "ĠBurger": 28983,
  "Â¯Â¯Â¯Â¯": 8980,
  "ĠSlay": 46809,
  "oine": 42722,
  "Ġtrace": 12854,
  "Ġdisappro": 22293,
  "ISH": 18422,
  "ARP": 36035,
  "aria": 10312,
  "Ġpersonal": 2614,
  "ĠYamato": 40135,
  "Ġlifestyles": 43644,
  "joy": 2633,
  "Ġstrengths": 18929,
  "ĠHamburg": 32526,
  "ĠElias": 41462,
  "onge": 14220,
  "iqu": 1557,
  "Ġcloak": 24117,
  "Ġcured": 30703,
  "ix": 844,
  "Ġadultery": 38713,
  "ĠHi": 15902,
  "Ġcollaboration": 12438,
  "ĠNationwide": 49232,
  "Ġchrome": 32030,
  "avanaugh": 19872,
  "Ġapple": 17180,
  "ivil": 2464,
  "ĠCET": 46632,
  "Ġobserver": 22890,
  "crit": 22213,
  "Ġ</": 7359,
  "Ġinfer": 13249,
  "ĠEater": 40366,
  "ĠBaz": 47099,
  "ĠInn": 10849,
  "ĠQian": 44696,
  "bourg": 24256,
  "Ġarter": 30675,
  "Ġprice": 2756,
  "pelling": 35025,
  "neutral": 29797,
  "Ġcaucus": 24402,
  "Ġterrestrial": 35609,
  "dec": 12501,
  "ĠGarner": 37383,
  "inch": 8589,
  "assets": 19668,
  "ĠAlpine": 46994,
  "Ġperiphery": 46628,
  "oya": 23790,
  "ĠMadame": 43116,
  "ERA": 46461,
  "Sym": 43094,
  "ITED": 22061,
  "uates": 12632,
  "icka": 29873,
  "Ġdetermination": 12123,
  "Ġbarred": 23902,
  "ĠTag": 17467,
  "=": 28,
  "irds": 11049,
  "Vers": 34947,
  "ĠThem": 26460,
  "Ġ92": 10190,
  "Ġminiature": 28685,
  "241": 28872,
  "Ġstrawberry": 41236,
  "Ġtion": 34222,
  "ĠDress": 33611,
  "Ġcertific": 8700,
  "Ġreins": 35627,
  "ĠNat": 14393,
  "Ġrulers": 24925,
  "ĠDul": 42148,
  "Ġclassmates": 28999,
  "ĠNode": 19081,
  "Ġtrem": 10023,
  "ĠUkrainians": 49114,
  "inth": 9304,
  "angles": 27787,
  "Ġop": 1034,
  "ĠDav": 2544,
  "orean": 29456,
  "ĠOPEN": 38303,
  "Ġpromoter": 32972,
  "Ġchop": 30506,
  "Oh": 5812,
  "Ġunicorn": 44986,
  "429": 11785,
  "Ġsol": 1540,
  "1964": 46477,
  "AST": 11262,
  "Ġindications": 26496,
  "ĠSheep": 35418,
  "Ġhemorrh": 42203,
  "ĠKam": 12670,
  "Ġatheists": 28473,
  "ĠNGO": 22142,
  "ĠKur": 18132,
  "ĠParkinson": 31618,
  "ĠCentOS": 32418,
  "Ġinitiated": 16862,
  "Ġkernels": 50207,
  "ĠToken": 29130,
  "Ġ=================": 36658,
  "?????": 19622,
  "agnar": 30475,
  "Ġconfusion": 10802,
  "------------------------": 22369,
  "Aren": 43199,
  "AE": 14242,
  "Ġratt": 27263,
  "zh": 23548,
  "aterial": 2273,
  "ĠPist": 18667,
  "ĠFloor": 22343,
  "ĠShinra": 47981,
  "Ġlegalize": 35605,
  "ĠACLU": 24381,
  "Ġpreventive": 37197,
  "Øª": 41486,
  "Ġdeadline": 12508,
  "ĠCutler": 37194,
  "Ġ212": 23679,
  "Ġdisson": 47080,
  "Ġfueled": 24959,
  "Cas": 35155,
  "Ġarrow": 15452,
  "formance": 10367,
  "ĠBot": 18579,
  "ĠShiny": 39657,
  "ĠLeaf": 14697,
  "Ġsensation": 18098,
  "Ġraven": 37735,
  "kept": 45089,
  "Ġsetback": 34116,
  "Ġadvertised": 23944,
  "Ġtacos": 44058,
  "Ġmanuscript": 17116,
  "Ġdamages": 12616,
  "ĠSecondly": 34276,
  "Ġexposing": 21294,
  "Ġsmell": 8508,
  "drug": 30349,
  "ĠBarrel": 29920,
  "(\"": 7203,
  "Ġclaimant": 50018,
  "ĠWestminster": 20353,
  "Ġ1886": 49539,
  "Ġholiday": 9912,
  "ĠHasan": 49482,
  "cled": 20095,
  "Ġ2021": 33448,
  "Ġlaureate": 49734,
  "Ġdebugging": 28769,
  "Ġstranded": 28553,
  "OUT": 12425,
  "Ġforgiveness": 26027,
  "AI": 20185,
  "ĠLAR": 47211,
  "Writing": 33874,
  "ĠChin": 22604,
  "ĠCorinth": 31268,
  "Ġscrolls": 32138,
  "Ġhay": 27678,
  "interesting": 47914,
  "DA": 5631,
  "osures": 16091,
  "Ġitch": 49700,
  "Ġcer": 26074,
  "Ġlaugh": 6487,
  "ĠRates": 34864,
  "Ġdebugger": 49518,
  "Ġcrush": 19813,
  "ernaut": 37879,
  "Ġskyrocket": 41483,
  "ĠKnowing": 29154,
  "ĠCure": 36947,
  "0200": 44613,
  "Ġsalon": 46608,
  "odes": 4147,
  "aghetti": 35812,
  "ffen": 46985,
  "TB": 22737,
  "ĠSaints": 13048,
  "XM": 37643,
  "ĠCreed": 24299,
  "Ġforfeit": 46548,
  "Ġuniverse": 6881,
  "rays": 20477,
  "YES": 43335,
  "Ġspaces": 9029,
  "Ġspreadsheet": 30117,
  "Ġgriev": 21634,
  "ĠRespect": 42153,
  "placed": 21820,
  "Ġbrav": 49025,
  "Ġintegers": 37014,
  "Your": 7120,
  "ĠSouthwest": 24320,
  "Ġstay": 2652,
  "ĠDiaz": 26899,
  "ĠToys": 35397,
  "ĠIE": 28157,
  "alk": 971,
  "t": 83,
  "ĠBolivia": 38496,
  "ĠJudah": 49931,
  "Ġmedal": 18279,
  "Ġ1979": 13521,
  "plain": 25638,
  "ĠJordanian": 47820,
  "Ġâĵĺ": 30684,
  "comment": 23893,
  "ĠBudapest": 40959,
  "Camera": 35632,
  "ĠXXX": 27713,
  "gex": 25636,
  "als": 874,
  "Ġdeemed": 10762,
  "Ġirresponsible": 28726,
  "eros": 27498,
  "ĠJared": 19116,
  "Ġtravels": 17781,
  "Done": 45677,
  "Â°": 7200,
  "icable": 18424,
  "be": 1350,
  "acking": 5430,
  "ĠIbrahim": 30917,
  "ĠBye": 47843,
  "ĠSandwich": 45000,
  ")/": 20679,
  "Ġfluffy": 39145,
  "Ġreceptive": 41062,
  "Ġprogress": 4371,
  "fixed": 34021,
  "ĠH": 367,
  "final": 20311,
  "ĠProphe": 33360,
  "ĠTicket": 24014,
  "Ġkb": 47823,
  "ä¼": 27670,
  "Ġtransporting": 32331,
  "friendly": 13120,
  "##": 2235,
  "ĠOre": 22452,
  "ĠTalk": 12167,
  "ĠView": 3582,
  "Ġinducing": 44561,
  "Ġjerseys": 36354,
  "ammers": 36846,
  "Ġspeaking": 5486,
  "ĠâĪ": 18872,
  "Ġwilderness": 22775,
  "Ġfootballer": 44185,
  "Ġkay": 34681,
  "gu": 5162,
  "ĠJungle": 26411,
  "ĠCharter": 23006,
  "exc": 41194,
  "Ġnever": 1239,
  "âĢ¢âĢ¢": 22838,
  "ĠTile": 47870,
  "iration": 15297,
  "ĠIchigo": 44547,
  "Ġastonished": 40962,
  "Ġ272": 38107,
  "Ġpark": 3952,
  "Ġevangel": 17138,
  "Ġrout": 3441,
  "ortium": 25182,
  "eming": 46564,
  "ĠMonitoring": 37484,
  "Ġdeclines": 24459,
  "Ġmeta": 13634,
  "ĠDw": 19113,
  "bur": 6236,
  "ubis": 46676,
  "Ġexacerbate": 49522,
  "ĠCurrency": 20113,
  "listed": 17935,
  "component": 42895,
  "Ġsenseless": 41439,
  "lib": 8019,
  "orneys": 13060,
  "adv": 32225,
  "Ġrobbery": 18609,
  "Ġrecol": 26330,
  "ĠAugustus": 48339,
  "Ġdelay": 5711,
  "Ġwhist": 32262,
  "ĠGolf": 19709,
  "ĠReturning": 42882,
  "Ġfanc": 39980,
  "ĠPed": 13457,
  "hot": 8940,
  "MEN": 49275,
  "Ġgrou": 1132,
  "Ġinsanity": 30949,
  "acement": 5592,
  "Ġoffences": 20819,
  "]).": 35944,
  "Ġrum": 7440,
  "autions": 28766,
  "ustain": 19542,
  "Ġexplanation": 7468,
  ".-": 7874,
  "Ġ355": 36561,
  "Ġlanding": 9581,
  "tab": 8658,
  "Ġmagnification": 44120,
  "ells": 19187,
  "Image": 5159,
  "Ġstrictly": 14084,
  "Ġven": 8710,
  "Ġreacts": 30174,
  "Ġembark": 21030,
  "(\\": 38016,
  "Ġallegations": 7636,
  "ille": 8270,
  "ĠHosp": 39946,
  "Ġguardians": 32769,
  "argo": 9448,
  "Ġcell": 2685,
  "ĠBuccaneers": 37006,
  "Ġloaf": 40134,
  "370": 20167,
  "329": 37967,
  "ãĤ»": 47271,
  "Ġmsec": 43242,
  "ĠChemical": 24872,
  "ĠMelanie": 49872,
  "Ġprofitability": 37129,
  "Ġaddicted": 28357,
  "github": 12567,
  "Ġsanctuary": 24050,
  "Ġnamesake": 49829,
  "urate": 15537,
  "Ġquitting": 34161,
  "Ġinspires": 38934,
  "Ġseeds": 11904,
  "Handle": 37508,
  "jected": 35408,
  "Ġaccuses": 35062,
  "Ġmisplaced": 43746,
  "Ġpostage": 48552,
  "Ġswallowed": 27961,
  "Ġnutritious": 48102,
  "Ġensuing": 29543,
  "ĠGPS": 15472,
  "azeera": 28535,
  "Aim": 49945,
  "Ġheadquarters": 10043,
  "Ġrespons": 2424,
  "448": 31115,
  "Jo": 9908,
  "abella": 43653,
  "2011": 9804,
  "ĠDarius": 47129,
  "ĠASC": 25400,
  "ordes": 35770,
  "Ġjustified": 14460,
  "ĠHenderson": 22016,
  "ĠAssociates": 29306,
  "Ġscientists": 5519,
  "Ġpron": 9668,
  "704": 32869,
  "Ġvir": 5709,
  "uan": 7258,
  "LIN": 34509,
  "ĠPf": 38477,
  "489": 35890,
  "FP": 5837,
  "From": 4863,
  "Ġadvice": 5608,
  "Ġshootings": 17690,
  "AND": 6981,
  "Ġtowel": 24808,
  "Ġclosed": 4838,
  "negative": 31591,
  "FR": 10913,
  "Ġforg": 5784,
  "yers": 21200,
  "Ly": 31633,
  "ptoms": 35533,
  "Col": 5216,
  "Ġsexual": 3206,
  "Ġslumped": 48560,
  "Ġstarve": 47141,
  "ĠWalters": 43287,
  "ĠElection": 14219,
  "Alien": 44501,
  "Ġclay": 21558,
  "spot": 20485,
  "Ġgraphic": 13028,
  "Ġvacancies": 48639,
  "au": 559,
  "ĠUK": 3482,
  "escription": 7260,
  "Ġ650": 22626,
  "Is": 3792,
  "ĠSenate": 3845,
  "Ġpandemonium": 41274,
  "ĠLibrary": 10074,
  "Ġpres": 906,
  "vor": 20867,
  "ĠPalo": 44878,
  "ĠResearch": 4992,
  "aus": 8717,
  "Ġsurprised": 6655,
  "Ġexpend": 12220,
  "ĠMcA": 40444,
  "ĠSlide": 37651,
  "ĠFolk": 36111,
  "Ak": 33901,
  "illon": 23027,
  "Ġlateral": 25653,
  "ĠNULL": 15697,
  "fing": 28825,
  "Ġbutterflies": 44571,
  "ĠCurrently": 16888,
  "orient": 13989,
  "Ġgoodbye": 24829,
  "UM": 5883,
  "Ġcarbohyd": 19476,
  "SB": 16811,
  "Ġbooming": 32017,
  "Ġkilometers": 18212,
  "ĠKens": 29018,
  "Ġforbid": 33277,
  "ĠPlanning": 21913,
  "ĠNig": 13732,
  "Ġsqu": 2809,
  "ĠNorse": 38419,
  "Ġhighways": 27239,
  "Ġboyfriend": 13850,
  "INESS": 44180,
  "Initialized": 28500,
  "Ġpredicament": 44472,
  "Tube": 6876,
  "975": 42716,
  "Ġore": 23751,
  "GT": 19555,
  "Ġhairc": 37363,
  "ĠConor": 41708,
  "oked": 6545,
  "ĠLatin": 9133,
  "Ġactivist": 11276,
  "Ġmaximizing": 48350,
  "Ė": 210,
  "ĠCBS": 11133,
  "ĠZeus": 20620,
  "July": 16157,
  "Ġbowls": 34796,
  "ons": 684,
  "Ġmarital": 29555,
  "igg": 6950,
  "Ġcircumcised": 45522,
  "Ġreopened": 37415,
  "ĠKahn": 42264,
  "ĠVaughn": 47151,
  "UX": 31235,
  "Ġmandated": 28853,
  "QB": 40291,
  "uron": 44372,
  "Ġ2006": 4793,
  "ĠNikki": 34108,
  "ĠRoots": 34341,
  "min": 1084,
  "Ġpes": 32317,
  "minster": 18462,
  "ĠTight": 44643,
  "Ġvolatile": 22750,
  "ĠColumb": 6845,
  "mopolitan": 44331,
  "onymous": 6704,
  "Ġinstructor": 21187,
  "ĠKara": 34856,
  "inance": 14149,
  "Ġgrasped": 45569,
  "Ġmasculine": 27543,
  "profit": 9183,
  "document": 22897,
  "ĠDudley": 37198,
  "ĠGaza": 11010,
  "ĠHos": 30789,
  "ĠDIY": 25134,
  "Ġtcp": 48265,
  "ATCH": 11417,
  "ÂłÂłÂłÂłÂłÂłÂłÂłÂłÂłÂłÂłÂłÂłÂłÂł": 39172,
  "such": 10508,
  "ĠZhu": 33144,
  "ĠSeeds": 41833,
  "Don": 3987,
  "Ġsurfaced": 23786,
  "ĠAsian": 7740,
  "ĠRod": 6882,
  "ĠKis": 30519,
  "ĠAs": 1081,
  "Ġcyt": 27104,
  "Ġlaunched": 5611,
  "itect": 5712,
  "Ġabsorbing": 34418,
  "IAN": 16868,
  "Delivery": 33129,
  "ff": 487,
  "ital": 1287,
  "ĠCFL": 45239,
  "Ġunion": 6441,
  "216": 20666,
  "Ġ29": 2808,
  "economic": 17079,
  "Ġeluc": 49031,
  "ĠBrees": 46373,
  "Ġarri": 2914,
  "Ġjets": 20792,
  "Ġext": 1070,
  "Ġunsettling": 38192,
  "ĠDia": 49838,
  "ĠLite": 27395,
  "Ġlawy": 4840,
  "Ġchloride": 44921,
  "Ġconvince": 11508,
  "ĠVariable": 35748,
  "ĠGry": 33958,
  "Ġincreased": 3220,
  "After": 3260,
  "ĠRES": 15731,
  "Ġnostalgic": 40459,
  "igated": 26963,
  "Meta": 48526,
  "rano": 35823,
  "Neill": 26538,
  "Ġhatred": 13763,
  "(),": 22784,
  "!--": 28112,
  "ĠGill": 12981,
  "Desc": 24564,
  "Nitrome": 42066,
  "riad": 21244,
  "ĠOUR": 30229,
  "ĠElectrical": 40224,
  "ĠWem": 45300,
  "second": 12227,
  "Ġcheered": 34767,
  "Ġpromoters": 43381,
  "Ġimproper": 18992,
  "Ġmornings": 31143,
  "Ġtouches": 18105,
  "Ġultrasound": 37721,
  "LG": 41257,
  "soft": 4215,
  "Ġinspection": 15210,
  "ĠRefer": 33973,
  "achers": 17892,
  "ĠEmer": 10320,
  "diagn": 47356,
  "Ġbet": 731,
  "zinski": 46394,
  "LLOW": 44765,
  "ĠHunger": 32367,
  "dule": 5950,
  "Ġbullying": 20714,
  "Ġlabels": 14722,
  "Ġconc": 1673,
  "introdu": 27427,
  "ĠShooting": 25360,
  "Ġconsist": 3473,
  "user": 7220,
  "ĠBasin": 32666,
  "wich": 11451,
  "ensing": 26426,
  "Ġdisturbing": 14851,
  "ish": 680,
  "771": 46761,
  "abuse": 47158,
  "ormon": 10615,
  "Ġunfinished": 34419,
  "ĠRural": 36486,
  "om": 296,
  "Ġassertions": 29965,
  "fle": 27919,
  "KEN": 43959,
  "Ġr": 374,
  "Ġpublicity": 19403,
  "ham": 2763,
  "Labour": 32475,
  "Ġretirement": 10737,
  "ĠTreasury": 13419,
  "Ġdefensively": 33352,
  "Ġgoofy": 44089,
  "Ġworldwide": 8688,
  "Ġregiment": 34792,
  "ĠFlore": 23347,
  "insured": 28409,
  "Ġopportunities": 6443,
  "blance": 42757,
  "Ġpockets": 16511,
  "Ġendorsing": 38379,
  "Ġpharmacies": 49661,
  "Ġblogs": 19118,
  "esthes": 29678,
  "Resources": 33236,
  "Ping": 49806,
  "locking": 48331,
  "Ġawesome": 7427,
  "Ġpoisoning": 22475,
  "ĠPretty": 20090,
  "Donnell": 24853,
  "sur": 11793,
  "Ġpalpable": 45061,
  "itone": 49644,
  "oken": 4233,
  "ĠPittsburgh": 12767,
  "Ġwhiff": 48112,
  "ĠJesuit": 50190,
  "ĠNicotine": 41090,
  "790": 37750,
  "ĠLob": 32684,
  "Engineers": 28620,
  "Ġvisitation": 49874,
  "staff": 28120,
  "ãģ®éŃĶ": 34633,
  "Ġforests": 17039,
  "Ġatrocities": 27817,
  "Ġviolations": 11734,
  "park": 20928,
  "1988": 26709,
  "ALTH": 40818,
  "Iraq": 31206,
  "find": 19796,
  "ĠBangladesh": 19483,
  "Ġleaked": 14109,
  "Ġoccurrence": 19810,
  "ĠSecurities": 22971,
  "Ref": 8134,
  "ĠFury": 18427,
  "ĠGarg": 39013,
  "Ġcommod": 13088,
  "Ġjavascript": 44575,
  "Ġgrowers": 33527,
  "Ġcharcoal": 33512,
  "ĠMRI": 30278,
  "ern": 1142,
  "Ġexplodes": 38711,
  "Ġpoison": 8764,
  "Ġmanga": 15911,
  "ĩ": 229,
  "Ġupgrading": 25485,
  "Ġgather": 6431,
  "ionage": 24919,
  "usalem": 10555,
  "Ġpunching": 29044,
  "Ġdirty": 11841,
  "Ġbread": 8509,
  "ccording": 2941,
  "ĠEpstein": 34594,
  "Ġkilograms": 37075,
  "Ġmu": 38779,
  "ber": 527,
  "Bo": 16635,
  "ĠHann": 14353,
  "oster": 6197,
  "989": 42520,
  "Ġpodcasts": 31969,
  "ĠQuad": 20648,
  "ume": 2454,
  "Ġindustrialized": 47670,
  "Atlantic": 41120,
  "ĠJPMorgan": 43318,
  "ĠBalanced": 38984,
  "Ġcalories": 14653,
  "Ġattribution": 39629,
  "Ġmix": 5022,
  "Ġbroadcaster": 26661,
  "aic": 18452,
  "ĠGlobe": 18260,
  "Ġexperienced": 5924,
  "stration": 12401,
  "ĠJade": 23386,
  "Ġpartial": 13027,
  "Ġhose": 31489,
  "ĠPlug": 22689,
  "Ġexcessively": 40437,
  "ĠRend": 28703,
  "ĠFeather": 34501,
  "431": 50080,
  "\\\">": 38214,
  "Ġreigning": 40098,
  "Ġexaggerated": 25291,
  "ocracy": 17818,
  "ĠNM": 28692,
  "aclysm": 40605,
  "ĠAccording": 4784,
  "Ġiso": 47279,
  "Ġunintentional": 48398,
  "Ġadvisors": 32456,
  "Stud": 13007,
  "ĠLights": 22661,
  "idity": 17995,
  "Ġbrain": 3632,
  "Ġdiss": 6249,
  "Polit": 39866,
  "ĠHIS": 33700,
  "Ġtrusting": 33914,
  "Ġdisorders": 11916,
  "Ġears": 11368,
  "Ġinvaders": 39417,
  "ĠMacBook": 28084,
  "ĠHorizons": 39519,
  "Ġunderworld": 42494,
  "utters": 46973,
  "oley": 48437,
  "ĠKrypt": 44679,
  "Ġsalad": 20698,
  "ĠNolan": 27788,
  "vs": 14259,
  "Ġcommands": 9729,
  "otal": 4997,
  "Ġvacations": 48695,
  "onut": 16478,
  "Ġconferences": 19993,
  "Ġdisclosing": 39916,
  "ĠTurns": 30875,
  "Ġpac": 23503,
  "Ġ<@": 32406,
  "Ġknowing": 6970,
  "Ġmorphology": 46320,
  "Ġterribly": 22121,
  "048": 47202,
  "ption": 1159,
  "ĠBahÃ¡": 38218,
  "Ġexploiting": 29440,
  "ĠReady": 23432,
  "Veh": 37870,
  "Ġscreens": 8947,
  "Empty": 40613,
  "DeliveryDate": 39749,
  "keleton": 38800,
  "Christ": 10684,
  "Ġchef": 21221,
  "Ġrise": 4485,
  "IELD": 49979,
  "Ġupscale": 44918,
  "Ġsenators": 15469,
  "02": 2999,
  "882": 42980,
  "Ġmortg": 28465,
  "Ġ3000": 20343,
  "Ġhep": 47585,
  "Dual": 36248,
  "ĠRoom": 10096,
  "ĠKaine": 37193,
  "Ġlayoffs": 41965,
  "ryce": 28169,
  "ĠDrive": 9974,
  "arious": 27129,
  "Ġsy": 827,
  "istent": 7609,
  "viron": 2268,
  "Ġplaster": 46376,
  "akening": 18800,
  "Ġwebs": 2639,
  "lined": 10837,
  "iceps": 41663,
  "mares": 23745,
  "Ġwrapper": 29908,
  "å·": 32432,
  "Ġrestoring": 25646,
  "cer": 2189,
  "vers": 690,
  "Ġproteins": 15568,
  "bley": 43263,
  "Ġthriller": 32251,
  "capitalist": 49970,
  "ĠFirm": 31623,
  "ĠSpiel": 34841,
  "Ġlevy": 35783,
  "apper": 11463,
  "323": 32637,
  "Ġcausing": 6666,
  "Ġinduce": 21155,
  "Narr": 45750,
  "Ġcentr": 27435,
  "ĠLauder": 39212,
  "ĠXie": 48989,
  "ĠFirstly": 41039,
  "Ġpicked": 6497,
  "Ġferv": 28866,
  "ITS": 29722,
  "ogle": 2467,
  "ĠHok": 26467,
  "ĠOber": 33753,
  "Ġextract": 7925,
  "ĠConsumer": 18110,
  "ĠProtocol": 20497,
  "Open": 11505,
  "ĠInspect": 20904,
  "Ġcondu": 36118,
  "ĠRai": 42954,
  "ĠPutting": 39956,
  "ĠHead": 7123,
  "light": 2971,
  "agy": 46671,
  "ĠEuropean": 3427,
  "ĠBreakfast": 32175,
  "atable": 21156,
  "670": 43798,
  "ĠCraw": 20177,
  "ĠAngels": 17654,
  "gom": 19120,
  "Ġmechan": 3962,
  "ĠCharacters": 26813,
  "Ġcounting": 14143,
  "ĠFathers": 30969,
  "ĠUPDATE": 35717,
  "ĠMarketplace": 36703,
  "eless": 5321,
  "anian": 38336,
  "eworld": 38136,
  "treatment": 42487,
  "ĠHib": 38315,
  "talking": 48186,
  "Ġglared": 50030,
  "Tags": 36142,
  "ĠIB": 34782,
  "Ġmigraine": 50082,
  "Sphere": 38882,
  "track": 11659,
  "ofi": 39542,
  "u": 84,
  "Ġhistorically": 15074,
  "Why": 5195,
  "root": 15763,
  "Ġhalf": 2063,
  "atti": 34891,
  "ĠBL": 9878,
  "Ġpolymer": 30528,
  "Ġinternational": 3230,
  "Ġinstallments": 49854,
  "resource": 31092,
  "Î»": 39377,
  "Ġfortified": 40479,
  "Ġcabbage": 41266,
  "actly": 24342,
  "Header": 39681,
  "Ġsovereignty": 18582,
  "CONT": 37815,
  "Ġrenders": 30111,
  "Ġplummeted": 44282,
  "ĠInteractive": 21365,
  "Ġcontag": 34335,
  "icably": 41685,
  "ĠPetersburg": 27051,
  "Ġpercent": 1411,
  "asis": 17765,
  "oute": 13192,
  "ĠHindu": 16397,
  "ĠMining": 29269,
  "ĠScotch": 46755,
  "Ġ!=": 14512,
  "Ġcandy": 18550,
  "Ġknows": 4206,
  "emon": 7966,
  "ĠYiannopoulos": 39214,
  "FM": 23264,
  "Ġstarts": 4940,
  "Ġovercl": 40397,
  "Ġout": 503,
  "Ġkinda": 17855,
  "Ġprecarious": 38761,
  "Ġpadd": 14098,
  "Ġstagger": 20778,
  "Tracker": 35694,
  "ĠPetersen": 48604,
  "Ġuphe": 40097,
  "Ġsuperpower": 47481,
  "Ġproclamation": 39862,
  "itten": 2621,
  "Ġchilled": 45550,
  "ĠTLS": 33855,
  "ĠCPUs": 32340,
  "aquin": 48734,
  "Ġshar": 13986,
  "Ġemergence": 22106,
  "rown": 2053,
  "sd": 21282,
  "Ġhum": 1311,
  "éĹĺ": 42234,
  "Ġkey": 1994,
  "Republican": 25777,
  "cdn": 32341,
  "quarters": 8230,
  "rew": 1809,
  "ĠWeir": 46669,
  "ĠPens": 38740,
  "neys": 20141,
  "pects": 38046,
  "ĠFighting": 19098,
  "Ġinaccurate": 21873,
  "mint": 34289,
  "ĠJournal": 4913,
  "Li": 32304,
  "ĠFantasy": 10982,
  "ÙĦ": 13862,
  "IX": 10426,
  "ĠTatt": 36711,
  "Ġoccasional": 12209,
  "ĠCelebration": 44911,
  "iler": 5329,
  "ĠTarg": 31089,
  "scription": 33584,
  "Ġchrom": 15358,
  "hyde": 39175,
  "ĠImprove": 20580,
  "439": 47106,
  "abad": 17325,
  "ĠBaxter": 46277,
  "etta": 15253,
  "ĠYellow": 12550,
  "ĠHand": 7157,
  "Ġpunishments": 35518,
  "Ġdepri": 15659,
  "public": 11377,
  "Ġdescription": 6764,
  "Ġinterpol": 39555,
  "ĠCitizenship": 47002,
  "Ġseasoning": 46794,
  "ĠGrenade": 47951,
  "Ġtaxed": 31075,
  "864": 39570,
  "Ġviolently": 25856,
  "ĠSch": 3059,
  "tics": 14094,
  "Har": 13587,
  "Ġedible": 35988,
  "reen": 1361,
  "Ġguy": 3516,
  "Ġmonopoly": 22036,
  "ĠRockies": 35521,
  "Ġwaving": 25849,
  "Ġbladder": 34918,
  "ĠChaos": 13903,
  "azz": 8101,
  "Ġplanes": 13016,
  "Form": 8479,
  "Ġhabit": 7947,
  "Ġcongestion": 28014,
  "ĠKavanaugh": 21195,
  "353": 33319,
  "Ġrug": 14477,
  "ĠDifferences": 41937,
  "Ġshoulder": 8163,
  "Mob": 44702,
  "oys": 19417,
  "Ġheaven": 9538,
  "Whereas": 48494,
  "Ġphantom": 36381,
  "Ġstructures": 8573,
  "Ġfreedoms": 23841,
  "ĠSprings": 18334,
  "ĠHarding": 45732,
  "ĠDeploy": 34706,
  "Ġ04": 8702,
  "detail": 49170,
  "ĠSed": 22710,
  "Ġgoblins": 46220,
  "Chart": 45488,
  "Ġmaritime": 30017,
  "isma": 38017,
  "Ġdodged": 49392,
  "Ġassisting": 26508,
  "Ġunlike": 5023,
  "una": 9613,
  "olded": 48959,
  "Ġseminal": 38915,
  "Country": 33921,
  "Guy": 31080,
  "Ġcounselors": 44135,
  "ĠFernandez": 39692,
  "Ġdisagreed": 27884,
  "hra": 45056,
  "olphin": 27161,
  "Hz": 7399,
  "MR": 13599,
  "properties": 48310,
  "edin": 27152,
  "Ġfollowing": 1708,
  "486": 34251,
  "Ġende": 15535,
  "raint": 16947,
  "Ġgruesome": 34557,
  "Ġunexpl": 31286,
  "ĠOt": 19740,
  "Ġowe": 19059,
  "ĠEsther": 47533,
  "Ġbrowsing": 23182,
  "Ġjams": 44147,
  "ä¹": 20046,
  "ĠDraw": 15315,
  "ansson": 44038,
  "Ġdisillusion": 39977,
  "cpu": 36166,
  "ĠHogan": 25316,
  "Ġumbrella": 25510,
  "hist": 10034,
  "ĠPin": 13727,
  "Ġbilling": 26297,
  "ĠPix": 21642,
  "bring": 48580,
  "Ġwritten": 3194,
  "BI": 3483,
  "ger": 1362,
  "ĠFloat": 48436,
  "Ġillustrate": 19418,
  "aning": 7574,
  "ĠCaller": 10244,
  "Ġyak": 46251,
  "mys": 28744,
  "ĠSpecies": 28540,
  "Ġmedical": 3315,
  "Flags": 40053,
  "Ġbliss": 30533,
  "Johnson": 25378,
  "AIR": 42149,
  "Ġrubbish": 35022,
  "vironment": 2468,
  "Ġhotter": 37546,
  "Progress": 32577,
  "ĠDisk": 31664,
  "Ġregards": 13957,
  "ĠSaunders": 35896,
  "Je": 40932,
  "Ġ39": 5014,
  "Ġguilt": 14934,
  "ĠDevice": 16232,
  "ase": 589,
  "Ġclosures": 32149,
  "ĠPixel": 11349,
  "ĠEnhancement": 50230,
  "Ġchallenged": 12827,
  "Ġdownhill": 35390,
  "ĠDD": 20084,
  "ç·": 45784,
  "Ġwelcoming": 22516,
  "Ġforefront": 26401,
  "cycle": 13696,
  "ĠLegion": 15778,
  "League": 24623,
  "ĠSmy": 45083,
  "Ġtherapist": 24636,
  "fly": 12254,
  "ĠAlexandria": 27872,
  "1987": 27301,
  "areth": 26659,
  "Ġdetached": 30795,
  "SOURCE": 47690,
  "Ġleaking": 25243,
  "Ġencro": 45121,
  "Ġcontends": 33799,
  "ĠSomebody": 43141,
  "ĠNorthwest": 20572,
  "iece": 8535,
  "Ġappear": 1656,
  "Ġcables": 18018,
  "aye": 48822,
  "#$": 29953,
  "Ġpredec": 14060,
  "ĠGators": 47470,
  "ĠBarkley": 45408,
  "Ġconferred": 39376,
  "Ġneuronal": 36347,
  "ĠBarnett": 38174,
  "Ġinflamm": 14092,
  "Ġpathogens": 38366,
  "ĠOwn": 11744,
  "Ġencode": 37773,
  "Ġdrift": 24260,
  "Ġindices": 36525,
  "ĠYosemite": 43188,
  "claimed": 12795,
  "ĠStructure": 32522,
  "ĠFarmer": 37755,
  "ĠAuburn": 24579,
  "Ġcrimes": 6741,
  "incarn": 13211,
  "ĠCoulter": 47248,
  "ascade": 28966,
  "Ġenabling": 15882,
  "Ġdoor": 3420,
  "Ġvacuum": 17076,
  "Ġadoptive": 49378,
  "Ġchronic": 10726,
  "ĠKosovo": 37445,
  "Ġexhausted": 19064,
  "Ġeclipse": 25872,
  "Ġbene": 10004,
  "Ġ182": 28581,
  "ĠCounty": 3418,
  "Ġoutsourcing": 44333,
  "ĠFay": 35136,
  "Ġartwork": 16257,
  "astical": 32044,
  "Ġdisag": 7969,
  "olding": 33266,
  "Ġsacrificing": 32698,
  "Ġcens": 12428,
  "Ġwrit": 1991,
  "ĠLowe": 34241,
  "Ġredemption": 26831,
  "Ġreliant": 39150,
  "Ġadject": 31129,
  "332": 32148,
  "Ġsuitable": 11080,
  "available": 15182,
  "Ġhighlighted": 14537,
  "ĠLund": 33609,
  "ĠCold": 10250,
  "Ġthefts": 49980,
  "gebra": 29230,
  "Ã³": 10205,
  "Ġphilosophical": 17580,
  "536": 44468,
  "stim": 42003,
  "Ġapplauded": 38911,
  "righteous": 49955,
  "PS": 3705,
  "Ġsignalling": 45829,
  "Ġplanning": 5410,
  "Ġunderdog": 44288,
  "Ġteenagers": 17366,
  "Ġedited": 13012,
  "Ġbreathed": 39545,
  "Ġsure": 1654,
  "giene": 28363,
  "Ġhyster": 24258,
  "ĠSanford": 42862,
  "Ġbeforehand": 27091,
  "Ġprepared": 5597,
  "Ġexits": 30151,
  "Ġaccommodation": 19711,
  "Ġoutline": 19001,
  "zb": 14969,
  "Ġregardless": 7692,
  "ĠArn": 16644,
  "source": 10459,
  "Ġpolitically": 11889,
  "786": 46302,
  "ĠBU": 20571,
  "ctuary": 15258,
  "ĠCompliance": 40536,
  "ĠEsp": 20386,
  "ĠActor": 27274,
  "VII": 45529,
  "jad": 38442,
  "Ġ38": 4353,
  "ĠCoy": 26887,
  "Ġadvocating": 24950,
  "Ġassets": 6798,
  "ĠOxford": 13643,
  "ĠButcher": 39680,
  "ĠHutchinson": 43792,
  "ball": 1894,
  "Ġhazards": 27491,
  "ĠHom": 8074,
  "Ġ51": 6885,
  "court": 22230,
  "å¥": 25001,
  "gian": 18299,
  "Ġaltern": 3983,
  "ĠPremier": 9952,
  "Ġbeings": 9791,
  "ĠGolden": 8407,
  "Steam": 19109,
  "ĠEncounter": 40998,
  "Ġdecrease": 10070,
  "Ġalum": 46518,
  "instein": 11962,
  "arians": 13517,
  "Ġsatisf": 5244,
  "Ġvideos": 5861,
  "ja": 6592,
  "ign": 570,
  "Ġcollided": 43449,
  "ellery": 41800,
  "Ġopposes": 28928,
  "mmm": 27532,
  "ueller": 16466,
  "Ġder": 4587,
  "Ġbring": 2222,
  "Sup": 40784,
  "ĠCapitol": 13241,
  "real": 5305,
  "ĠWHY": 44463,
  "Ġcampaigns": 9964,
  "aterasu": 45335,
  "iven": 1469,
  "1974": 40828,
  "Ġinform": 4175,
  "Ġchili": 32728,
  "Mrs": 27034,
  "ĠMog": 30926,
  "Ġranch": 28752,
  "Ġfol": 5955,
  "ĠEF": 33685,
  "Ġpersecuted": 37501,
  "ĠLebanon": 16849,
  "lled": 3353,
  "jump": 43327,
  "Ġvent": 7435,
  "Ġdivor": 21781,
  "ailand": 16188,
  "ĠRPG": 12909,
  "PORT": 15490,
  "Ġwhere": 810,
  "326": 39195,
  "amation": 14755,
  "ĠBo": 3248,
  "ĠPers": 9467,
  "Michigan": 40610,
  "Amazing": 42770,
  "ĠANN": 40126,
  "ĠSynd": 19148,
  "Ġcynicism": 49509,
  "CNN": 18474,
  "ĠMou": 49902,
  "ectar": 44504,
  "fitted": 38631,
  "ĠAssistant": 15286,
  "ophone": 38656,
  "UGE": 41251,
  "Ġkills": 12847,
  "Ġbananas": 35484,
  "ĠPope": 13258,
  "249": 21626,
  "Ġgrain": 13020,
  "ĠAlive": 29606,
  "Ġconco": 33463,
  "Ġexcludes": 36833,
  "Ġpopulation": 3265,
  "ĠNotre": 23382,
  "ĠUW": 33436,
  "ĠCALL": 42815,
  "yre": 35759,
  "Ġ1933": 26539,
  "ĠAfrica": 5478,
  "assadors": 33429,
  "Ġgreenhouse": 16325,
  "Ġinhuman": 40190,
  "Ġsuperb": 21840,
  "iflower": 42642,
  "Ġcivic": 23265,
  "foundation": 42526,
  "amaz": 45983,
  "Ġdinner": 8073,
  "ĠCobb": 31868,
  "754": 41874,
  "ellen": 40635,
  "Ġbreathtaking": 35589,
  "Ġempires": 44982,
  "kov": 21862,
  "ĠLoud": 41520,
  "Ġridden": 46715,
  "ĠAttorney": 8123,
  "Ġpeac": 41961,
  "ĠWarfare": 20745,
  "brew": 11269,
  "OO": 6684,
  "ĠGW": 27164,
  "Ġintersections": 42085,
  "enaries": 30216,
  "Ġacknowledgment": 48182,
  "Ġshaft": 18619,
  "conference": 41124,
  "Ġhorizontal": 16021,
  "nel": 4954,
  "720": 23906,
  "Corn": 41389,
  "Ġpriced": 19744,
  "Ġanalyses": 13523,
  "Ġobservers": 17984,
  "Ġbolted": 49647,
  "Ġpostal": 30793,
  "Ġqual": 4140,
  "Ġexceptionally": 24822,
  "Ġwillful": 47860,
  "ĠNX": 42482,
  "ĠProphet": 13583,
  "Ġamenities": 35468,
  "Ġdenomination": 47491,
  "sharp": 48554,
  "love": 23205,
  "WARNING": 31502,
  "Ġempathy": 21452,
  "ĠMesa": 26670,
  "ĠMeteor": 25582,
  "((": 19510,
  "erella": 36648,
  "044": 43977,
  "Ġclen": 38566,
  "ĠConsole": 24371,
  "Ġintending": 38939,
  "Ġsunny": 27737,
  "really": 27485,
  "Generally": 37058,
  "Ġmixing": 17090,
  "Ġ2001": 5878,
  "Device": 24728,
  "Ġunmatched": 48621,
  "opia": 24464,
  "ornings": 28863,
  "Ġalliance": 12801,
  "ĠBrewing": 19321,
  "ss": 824,
  "ĠFriday": 3217,
  "Ġcharitable": 21803,
  "Ġfmt": 46996,
  "ĠInc": 3457,
  "679": 37601,
  "Ġdeflect": 31685,
  "filled": 20286,
  "Ġretarded": 34445,
  "ament": 3263,
  "Ġdrastically": 22188,
  "ĠTrouble": 34179,
  "ĠPatient": 35550,
  "Ġrighteous": 19539,
  "international": 45609,
  "Ġcrisis": 4902,
  "aration": 10186,
  "Ġsrf": 27924,
  "ivot": 45785,
  "ĠOU": 47070,
  "ĠDavis": 7802,
  "Ġbrawl": 42599,
  "eni": 43850,
  "igham": 34000,
  ",-": 12095,
  "aques": 46806,
  "rets": 8004,
  "ĠRevenge": 24366,
  "/.": 11757,
  "eals": 10621,
  "ĠWaiting": 39669,
  "Without": 16249,
  "Ġcaus": 26846,
  "entimes": 43598,
  "Ġwings": 12098,
  "ĠDmitry": 45181,
  "Ġgrin": 16770,
  "ĠTexture": 44409,
  "Anderson": 42991,
  "Ġw": 266,
  "Ġphilosopher": 23723,
  "Ġasserting": 33183,
  "Ġneed": 761,
  "Ġdecision": 2551,
  "anche": 6362,
  "boarding": 27794,
  "ĠAFL": 25363,
  "ochem": 18958,
  "Ang": 13450,
  "ĠACTIONS": 23054,
  "Ġneurot": 42181,
  "ODY": 33076,
  "ĠEc": 14003,
  "ĠEaster": 20111,
  "ĠInstr": 27901,
  "oenix": 8538,
  "Ġrange": 2837,
  "ĠAim": 36223,
  "Ġfodder": 41579,
  "Ġbrave": 14802,
  "ricted": 20941,
  "ilitating": 34871,
  "Ġclueless": 44865,
  "fol": 9062,
  "ĠScholarship": 38178,
  "\\/": 11139,
  "Card": 16962,
  "ĠSacrifice": 42036,
  "ĠDemons": 38539,
  "Ġpear": 25286,
  "ĠParish": 35240,
  "Pri": 34487,
  "girlfriend": 45189,
  "Ġgasoline": 21408,
  "ĠVog": 35421,
  "Ġbragging": 43018,
  "ĠCPU": 9135,
  "ĠDa": 9637,
  "ĠCOUN": 31404,
  "Ġacclaimed": 27023,
  "wang": 47562,
  "Ġwartime": 35382,
  "ĠUnity": 18714,
  "ĠArchangel": 28811,
  "thus": 26239,
  "Wide": 42559,
  "urt": 3325,
  "ĠCOMPLE": 49269,
  "Ġpro": 386,
  "SON": 11782,
  "Ġremark": 6919,
  "umin": 7230,
  "304": 21288,
  "ĠRubio": 15476,
  "âĢĶ\"": 19056,
  "abled": 4510,
  "Ġdangerously": 33247,
  "ĠLifetime": 40870,
  "Ġquarantine": 48827,
  "Ġpurchasing": 14080,
  "ĠNo": 1400,
  "ĠIstanbul": 25299,
  "Ġ1974": 16489,
  "Ġdrama": 10512,
  "Wind": 8731,
  "Queue": 34991,
  "thel": 37274,
  "Ġboring": 14262,
  "Ġ09": 7769,
  "Ġresult": 1255,
  "ĠDrift": 39819,
  "Ġtranspl": 37100,
  "Ġnorthwestern": 48164,
  "ĠDecember": 3426,
  "ju": 14396,
  "ĠVault": 23450,
  "ourse": 9047,
  "Ġmust": 1276,
  "Ġphoton": 48190,
  "rat": 10366,
  "ĠRegions": 47089,
  "odynam": 24319,
  "ĠVenezuela": 16666,
  "ĠSut": 45220,
  "Ġmaneu": 16136,
  "flower": 25547,
  "huge": 40878,
  "($": 16763,
  "Ġrational": 9377,
  "color": 8043,
  "Ġbandwidth": 19484,
  "Ġperilous": 48325,
  "ĠMcCabe": 45395,
  "Ġdef": 825,
  "sim": 14323,
  "Ġdriving": 5059,
  "Ġburden": 10538,
  "Provider": 29495,
  "Ġhands": 2832,
  "isdom": 9350,
  "Ġcrops": 14450,
  "itate": 12027,
  "Ġ()": 7499,
  "ĠÂłĠÂłĠÂłĠÂł": 22686,
  "ĠElijah": 38646,
  "trial": 45994,
  "Laura": 43687,
  "ĠDPR": 41176,
  "Ġreceive": 3328,
  "ĠThu": 26223,
  "ĠCalled": 34099,
  "Ġcampaign": 1923,
  "Ġdraining": 35939,
  "Construction": 36687,
  "Ġshipped": 14338,
  "Ġgit": 17606,
  "Harris": 41589,
  "Ġsided": 34384,
  "ĠFargo": 28125,
  "Ġpolitics": 4819,
  "ĠDVD": 12490,
  "ĠiCloud": 42076,
  "Ġsimplify": 30276,
  "Ġfilm": 2646,
  "ilipp": 8908,
  "Ġpowerful": 3665,
  "Ġvisceral": 38259,
  "ĠDucks": 27622,
  "Produ": 11547,
  "Ġpleaded": 16407,
  "rawled": 49263,
  "ĠStatus": 12678,
  "ium": 1505,
  "GY": 31212,
  "Ġfiller": 41134,
  "ĠHampton": 36852,
  "KI": 37845,
  "Ġimmersion": 36375,
  "Ġresignation": 18525,
  "CHECK": 50084,
  "Ġtraveler": 40168,
  "Ġdamaging": 14790,
  "Ġissued": 4884,
  "ĠShawn": 25225,
  "ĠPatri": 9606,
  "chers": 3533,
  "Ġcorrective": 46534,
  "Ġdescended": 23667,
  "Ġprogramming": 8300,
  "Ġtraced": 23246,
  "osate": 33931,
  "food": 19425,
  "Ġentrances": 43818,
  "acia": 47431,
  "Ġimmense": 13964,
  "ĠAnth": 8451,
  "Ġproport": 7601,
  "lement": 1732,
  "Ġbless": 12012,
  "ĠFilipino": 35289,
  "ruit": 4872,
  "otomy": 38385,
  "ĠBeard": 41698,
  "ĠColony": 34480,
  "Ġtournaments": 18130,
  "Ġrely": 8814,
  "Ġsettle": 12259,
  "Ġpriority": 8475,
  "Effective": 44831,
  "<?": 47934,
  "hov": 28026,
  "Ġ330": 25508,
  "pattern": 33279,
  "Ġaccepted": 6292,
  "fast": 7217,
  "Ġthin": 7888,
  "Facebook": 12025,
  "Ġholder": 15762,
  "ĠGandhi": 22081,
  "cus": 9042,
  "Ġassignments": 25815,
  "682": 43950,
  "latable": 49009,
  "acent": 12643,
  "ĠSamsung": 10397,
  "Ġassassin": 31120,
  "ĠKendall": 36779,
  "ĠCharacter": 15684,
  "ĠWatching": 36110,
  "ieth": 19235,
  "udding": 33926,
  "OPE": 32135,
  "ĠWalker": 10120,
  "ench": 24421,
  "Ġdevil": 17118,
  "æľ": 17312,
  "igsaw": 45636,
  "Ġcomposer": 26777,
  "ometers": 40077,
  "Ġpeas": 22589,
  "ĠunfocusedRange": 30209,
  "Ġsender": 29788,
  "Ġcruelty": 23152,
  "ĠQuake": 42901,
  "Ġear": 1027,
  "Ġchooses": 19769,
  "list": 4868,
  "Ġpreparations": 21518,
  "visor": 13131,
  "ĠSurveillance": 34818,
  "Ġgrapple": 42146,
  "ĠChronicle": 14160,
  "Ġinfancy": 38120,
  "ĠSterling": 23647,
  "Ġloft": 42186,
  "Ġcommitment": 7901,
  "Ġbatters": 42442,
  "Ġimbalance": 32556,
  "Ġcelebrate": 10648,
  "imental": 9134,
  "BUT": 47526,
  "urdy": 22876,
  "ĠFrey": 35086,
  "arthed": 36370,
  "ĠCLASS": 42715,
  "android": 19411,
  "terrorist": 42002,
  "ĠAnimation": 23535,
  "ĠPolish": 15945,
  "Ġobliter": 35722,
  "ĠTuls": 33219,
  "pleasant": 21109,
  "utz": 27839,
  "ĠSochi": 37126,
  "Ġpessimistic": 46392,
  "Ġtransforms": 31408,
  "kos": 46150,
  "ĠANG": 33278,
  "layout": 39786,
  "ĠWars": 6176,
  "Ġ??": 19153,
  "ĠVes": 36448,
  "Ġstrive": 22076,
  "562": 43918,
  "ĠShit": 41356,
  "May": 6747,
  "std": 19282,
  "Ġresists": 47786,
  "ĠCole": 11768,
  "ĠFarms": 39045,
  "Ġunspecified": 29547,
  "7": 22,
  "Ġreliably": 26995,
  "444": 30272,
  "ĠShore": 25759,
  "ÃĽÃĽ": 48396,
  "ressing": 11697,
  "Ġ1914": 26833,
  "ĠSer": 2930,
  "razil": 7098,
  "abetes": 11064,
  "Ġemphatically": 49206,
  "ert": 861,
  "ĠImag": 39440,
  "Ġlum": 46390,
  "Ġwaters": 10150,
  "ills": 2171,
  "ĠWolfe": 37013,
  "ĠStefan": 28842,
  "png": 11134,
  "Unless": 28042,
  "EAR": 17133,
  "Rad": 15546,
  "Ġnewer": 15064,
  "ching": 10813,
  "digit": 27003,
  "Ġsucceeding": 34195,
  "inations": 7352,
  "ederal": 2110,
  "Sense": 41166,
  "Ġ98": 9661,
  "Ġcolorful": 20239,
  "Ġpatrols": 34141,
  "Ġ1984": 12844,
  "ĠBolt": 21764,
  "due": 23301,
  "Ġaddition": 3090,
  "Ġcontentious": 27154,
  "Ġperceptions": 23574,
  "tera": 49600,
  "Ġwhining": 48978,
  "Ġeat": 4483,
  "Ġundeniably": 47589,
  "ĠIdent": 11440,
  "229": 23539,
  "Ġthinly": 44722,
  "xxxx": 12343,
  "gencies": 33333,
  "Ġsensations": 34129,
  "ĠDamien": 46107,
  "Ġsalvage": 32504,
  "ĠDong": 28831,
  "70": 2154,
  "arently": 13773,
  "cd": 10210,
  "essen": 44483,
  "ĠAlbum": 23999,
  "ĠYES": 21560,
  "Ġgradual": 24972,
  "Ġfixme": 45199,
  "Ġcrucial": 8780,
  "Ġmodes": 12881,
  "ĠCrowd": 29452,
  "ĠOlympus": 42108,
  "FBI": 39379,
  "LER": 39878,
  "ounters": 15044,
  "ĠNarendra": 28113,
  "during": 42122,
  "ursion": 24197,
  "Ġcontained": 7763,
  "Ġbrick": 17214,
  "isSpecialOrderable": 39755,
  "ĠPieces": 44676,
  "ĠPv": 18367,
  "asons": 2812,
  "Characters": 48393,
  "ĠItems": 17230,
  "hetamine": 25385,
  "Ġchim": 18205,
  "tracks": 46074,
  "ĠMak": 15841,
  "Ġbrothers": 9397,
  "Ġseiz": 15038,
  "Ġtrack": 2610,
  "iers": 3183,
  "ĠRidley": 39616,
  "ĠHass": 20300,
  "524": 48057,
  "iscovery": 40821,
  "encies": 3976,
  "ĠControl": 6779,
  "Ġwonders": 19294,
  "Ġsquads": 31477,
  "Ġstopp": 43804,
  "ĠWrite": 19430,
  "Ġ1969": 16450,
  "Ġher": 607,
  "Ġcounterfe": 29465,
  "Ġdeclaring": 18684,
  "Ġpositional": 45203,
  "istle": 12535,
  "hew": 6391,
  "Ġcaregivers": 45044,
  "Hope": 34456,
  "ĠRivers": 18280,
  "Ġventured": 44716,
  "ournal": 2549,
  "Ġads": 9011,
  "Ġporn": 8483,
  "Ġdramatic": 10092,
  "ĠChart": 22086,
  "ĠErd": 16455,
  "Ġburg": 15601,
  "Ġcaptive": 25798,
  "Ãł": 24247,
  "icho": 38720,
  "Ġachieve": 4620,
  "ater": 729,
  "plex": 11141,
  "ĠSaddam": 24277,
  "Tank": 32978,
  "Ġcoded": 30817,
  "ĠZa": 44210,
  "Ġgrams": 16379,
  "Ġemerges": 25457,
  "Ġobnoxious": 43283,
  "been": 47436,
  "Ġcuts": 6630,
  "Package": 27813,
  "Ġprophes": 48897,
  "ves": 1158,
  "ĠStarr": 37884,
  "static": 12708,
  "ĠCIS": 36159,
  "ĠTRANS": 44069,
  "ĠCAD": 37292,
  "Ġtodd": 23646,
  "Thread": 16818,
  "ĠFeldman": 45498,
  "kies": 43724,
  "Ġbranch": 8478,
  "ATER": 23261,
  "^{": 36796,
  "ĠKrish": 31372,
  "Ġemerge": 14740,
  "Ġbaggage": 30466,
  "ĠFle": 12005,
  "inker": 24275,
  "Ga": 35389,
  "ĠSally": 25737,
  "Ġdeceased": 20117,
  "Ġoutskirts": 30140,
  "Ġ2002": 6244,
  "ĠQueensland": 21105,
  "ĠLabel": 36052,
  "ĠPension": 46391,
  "Ġ217": 24894,
  "ĠLower": 16048,
  "Ġgrooming": 41836,
  "ean": 11025,
  "pell": 23506,
  "Ġbask": 39353,
  "iddled": 34897,
  "378": 30695,
  "jet": 31173,
  "omsky": 37093,
  "ĠNou": 44599,
  "Ġdesire": 6227,
  "ĠOrange": 11942,
  "ĠTraditional": 29065,
  "Ġvigorous": 31543,
  "ĠRiot": 24528,
  "buck": 27041,
  "ĠLeah": 31232,
  "packed": 34860,
  "ĠFaw": 46081,
  "WHERE": 47357,
  "ĠNate": 23486,
  "Ġawards": 13304,
  "Ġsystemd": 31490,
  "Ġchildren": 1751,
  "oby": 26730,
  "ĠEN": 12964,
  "ĠMustang": 31163,
  "abre": 46241,
  "Ġsinging": 13777,
  "improve": 49453,
  "Ġsupplied": 14275,
  "ĠIdeally": 40067,
  "018": 29159,
  "Ġbottled": 34123,
  "ĠForestry": 45413,
  "Ġcome": 1282,
  "nostic": 43758,
  "Ġshowcase": 21742,
  "ĠMint": 20873,
  "dat": 19608,
  "ĠGrip": 40298,
  "Ġmaternal": 22160,
  "Ġlifetime": 10869,
  "ĠIncluded": 34774,
  "ĠLeg": 3564,
  "ĠexternalToEVAOnly": 30213,
  "Ġgib": 46795,
  "Perfect": 36635,
  "Ġupstream": 28717,
  "road": 6344,
  "ĠWATCHED": 30134,
  "ĠUnt": 26970,
  "ĠHELL": 47899,
  "De": 5005,
  "financial": 46921,
  "Ġeyed": 45320,
  "66666666": 41977,
  "510": 33690,
  "ĠKash": 20578,
  "ĠGMT": 16987,
  "ĠTimbers": 40200,
  "255": 13381,
  "ĠFuj": 32671,
  "ĠCru": 6472,
  "ĠZel": 40071,
  "Ġsequence": 8379,
  "Ġ625": 48868,
  "eca": 31047,
  "Ġrecruited": 18774,
  "ĠMarion": 32473,
  "Ġagreed": 4987,
  "auldron": 45637,
  "Ġmicrophones": 46952,
  "Ġund": 3318,
  "ĠGalaxy": 9252,
  "Ġchapters": 15754,
  "ĠFr": 1305,
  "ĠExternal": 34579,
  "ĠCompanion": 30653,
  "ĠSalv": 20332,
  "ohm": 34028,
  "ĠRecession": 39824,
  "gz": 34586,
  "animous": 45873,
  "Number": 15057,
  "aunch": 11429,
  "ĠExplosion": 45742,
  "Ġemanating": 49085,
  "Ġprocessing": 7587,
  "eda": 18082,
  "bot": 13645,
  "MF": 49800,
  "Ġcaste": 30747,
  "ibliography": 45689,
  "acular": 12754,
  "Ġ65": 6135,
  "billion": 24540,
  "Ġfishermen": 34955,
  "Ġlull": 42858,
  "ĠRasm": 39933,
  "Ã¯": 26884,
  "Ġunintended": 30261,
  "ampunk": 46183,
  "880": 41655,
  "Ġresin": 36536,
  "Ġexhaustive": 36049,
  "Cool": 34530,
  "?!\"": 30823,
  "ĠexternalToEVA": 30212,
  "oti": 5092,
  "Ġcongressional": 11702,
  "Ġdarkened": 44261,
  "ĠGust": 26657,
  "ĠBiology": 24698,
  "plets": 46916,
  "ĠHawth": 41457,
  "id": 312,
  "Message": 12837,
  "essa": 21411,
  "vertisement": 4060,
  "Ġcrafts": 28229,
  "Ĺ": 245,
  "ĠCruise": 29147,
  "ĠGl": 2671,
  "Ġseek": 5380,
  "=/": 33223,
  "ĠPog": 48974,
  "Ġremoves": 20694,
  "Ġmoist": 13394,
  "Ġdonating": 29798,
  "Ġadip": 31659,
  "Ġris": 6106,
  "Ġgenuine": 8768,
  "ĠBy": 2750,
  "ĠExactly": 36819,
  "res": 411,
  "Ġfringe": 26821,
  "Ġadvent": 19980,
  "clad": 29853,
  "115": 15363,
  "formerly": 36234,
  "ĠCARD": 48731,
  "Location": 14749,
  "NESS": 31097,
  "leneck": 43163,
  "come": 2958,
  "Ġ164": 25307,
  "Ġirrit": 14709,
  "Ġcoercive": 47236,
  "ĠDean": 11325,
  "âĨĳ": 48541,
  "Ġoverfl": 32876,
  "isf": 4468,
  "Ġspat": 15246,
  "193": 24943,
  "ĠGauntlet": 48941,
  "Ġbegs": 38609,
  "Â®,": 45088,
  "Ġsincerity": 44053,
  "Ġbreed": 15939,
  "Ġnecess": 2418,
  "ĠOwners": 33147,
  "283": 30290,
  "ci": 979,
  "Ġcomprising": 27918,
  "Ġtrait": 16708,
  "ĠJump": 15903,
  "ĠLopez": 22593,
  "hibit": 26964,
  "Ġ(Â£": 23068,
  "chant": 8907,
  "ĠDropbox": 38930,
  "ĠOperating": 24850,
  "ĠPanic": 34478,
  "ulus": 23515,
  "Ġoversaw": 40394,
  "Ġvalidity": 19648,
  "Ġnow": 783,
  "Romney": 42184,
  "ĠBM": 29944,
  "oshi": 13704,
  "ĠMineral": 30000,
  "ĠIsraeli": 6085,
  "Ġshin": 40465,
  "Ġpermission": 7170,
  "ĠCooke": 46247,
  "power": 6477,
  "Supp": 15979,
  "Ġ503": 44541,
  "Ġcontracted": 23407,
  "Ġsenator": 12329,
  "Ġ--------": 24200,
  "Ġcounselling": 47586,
  "ablish": 17148,
  "Ġrefunds": 36903,
  "ops": 2840,
  "Ġunmarried": 39183,
  "Az": 26903,
  "ĠComputer": 13851,
  "ĠInvestigations": 38111,
  "uler": 18173,
  "ĠLov": 39911,
  "Ġaur": 45714,
  "Ġrenal": 44375,
  "Ġperme": 29298,
  "ĠKobe": 29493,
  "Age": 23396,
  "Ġdifferentiate": 28754,
  "ĠExile": 37273,
  "217": 24591,
  "Sa": 33890,
  "ĠSpeedway": 46000,
  "Ġ=>": 5218,
  "Ġscrambling": 36502,
  "Ñĥ": 35072,
  "activ": 15791,
  "ĠMarxist": 26305,
  "ĠJonas": 40458,
  "Ġexceed": 7074,
  "phys": 34411,
  "Ġperplex": 35682,
  "ĠEarlier": 20635,
  "çīĪ": 48304,
  "âĢ¦\"": 9962,
  "ĠKraken": 43392,
  "andestine": 35887,
  "ĠCisco": 28289,
  "ĠSabb": 33066,
  "Eye": 24876,
  "Ġmoderate": 10768,
  "rogram": 39529,
  "tered": 4400,
  "Ġrake": 47885,
  "ĠIsle": 26378,
  "ĠTimes": 3782,
  "\"!": 40484,
  "HUD": 28410,
  "ĠGames": 5776,
  "Ġpressuring": 49906,
  "ĠCars": 25277,
  "ĠLib": 7980,
  "Ġrandomly": 15456,
  "Ġdehuman": 48772,
  "ĠCogn": 26543,
  "Brazil": 39190,
  "Ġpert": 22146,
  "ĠSalman": 31995,
  "ĠBomber": 38474,
  "Ġborne": 28068,
  "Kim": 26374,
  "angible": 39639,
  "Ġtopping": 34366,
  "ĠDiablo": 31452,
  "bang": 36668,
  "ĠNOR": 25273,
  "ĠProsecutors": 48198,
  "Ġcitrus": 35405,
  "2500": 44688,
  "ambers": 16368,
  "vm": 14761,
  "Ġseafood": 31473,
  "Ġmechanics": 12933,
  "Ġsufficient": 6751,
  "ĠMonetary": 34112,
  "aturally": 7436,
  "Ġdex": 36017,
  "ĠMorty": 30395,
  "Ġanew": 44951,
  "Great": 13681,
  "Ġconfined": 19733,
  "âĸĪâĸĪ": 9968,
  "ĠAub": 19723,
  "Ġwisdom": 11501,
  "Ġprojector": 43396,
  "wn": 675,
  "ali": 7344,
  "ager": 3536,
  "vette": 33573,
  "Ġparity": 34383,
  "ĠVa": 17668,
  "ĠIly": 49804,
  "Ġpremature": 19905,
  "Ġamounts": 6867,
  "Ġdistrict": 4783,
  "ĠSpringfield": 27874,
  "Ġenough": 1576,
  "FER": 24302,
  "rors": 5965,
  "DVD": 39218,
  "Ġhurdles": 34283,
  "Tesla": 41351,
  "Ġcowardly": 47687,
  "Ġcontainer": 9290,
  "969": 38819,
  "ĠAsus": 46301,
  "Ġbeast": 13824,
  "wat": 47261,
  "Ġminded": 35661,
  "Ġfeminist": 14314,
  "ĠSora": 42359,
  "Several": 14945,
  "Ġbenefit": 4414,
  "Ġduct": 28494,
  "Ġbarley": 38877,
  "Ġannexation": 41329,
  "ĠTAG": 37801,
  "ĠPain": 15627,
  "Ġallies": 7681,
  "Chem": 41829,
  "Ġreads": 9743,
  "Ġtrauma": 14649,
  "ĠEngel": 46073,
  "inflammatory": 32272,
  "Ġpotential": 2785,
  "Ġpredicate": 44010,
  "Ġcapitalist": 15098,
  "Ġauto": 8295,
  "ocused": 13073,
  "Ġcompleted": 5668,
  "ĠChelsea": 12147,
  "Ġdiamonds": 30984,
  "Ġdorm": 18586,
  "ĠMort": 10788,
  "Ġboiler": 36741,
  "Ġraising": 8620,
  "conf": 10414,
  "ĠMant": 36987,
  "ĠGifts": 48462,
  "Ġdominion": 43866,
  "Ġcp": 31396,
  "Ġbizarre": 13699,
  "Internal": 37693,
  "Ġissu": 25731,
  "vg": 45119,
  "Ġ//": 3373,
  "tur": 36590,
  "ĠMitch": 20472,
  "Ġgrieving": 42824,
  "onding": 42703,
  "lessness": 17587,
  "Ġhat": 6877,
  "ĠCats": 28997,
  "potion": 49324,
  "Wilson": 37349,
  "Ġnominate": 40376,
  "Better": 28971,
  "}.": 27422,
  "ĠMTA": 48824,
  "ĠAmelia": 49769,
  "Ġvisa": 14552,
  "Ġhappens": 4325,
  "ĠMoonlight": 39951,
  "Ġswat": 44284,
  "ĠHelic": 48574,
  "ĠFou": 34296,
  "FIN": 20032,
  "Ġmantra": 32628,
  "Ġenzymes": 29120,
  "dc": 17896,
  "Ġdeployments": 40854,
  "agonists": 36764,
  "Ġshr": 10157,
  "Ġdaytime": 32899,
  "avored": 48275,
  "Ġendings": 38168,
  "lations": 49905,
  "Ġguided": 17455,
  "Ġdou": 2255,
  "WIND": 28929,
  "edia": 5507,
  "Ġembraced": 18079,
  "wan": 8149,
  "Ġvaried": 15641,
  "ĠMend": 20442,
  "iov": 16664,
  "ĠBrooks": 17704,
  "Ġdiligent": 47334,
  "ĠCentral": 5694,
  "Ġprimary": 4165,
  "Ġinterior": 11087,
  "upper": 45828,
  "Ġsay": 910,
  "Ġstatistical": 13905,
  "ifter": 18171,
  "Ġaccommodate": 15550,
  "AH": 18429,
  "ĠFalk": 32164,
  "Ġming": 42434,
  "Ġsuggest": 1950,
  "Ġgenerator": 17301,
  "Ġpe": 613,
  "Ġtrou": 4057,
  "Ġreplica": 30069,
  "ĠXi": 21313,
  "psc": 27566,
  "Ġpref": 7694,
  "ĠXeon": 45266,
  "xxxxxxxx": 24223,
  "Ġblogging": 38310,
  "ircraft": 27002,
  "pee": 39463,
  "Ġadvoc": 5271,
  "ĠBAT": 37421,
  "resa": 14625,
  "alloween": 50107,
  "ĠWes": 18622,
  "358": 31128,
  "ĠBand": 10243,
  "Ġconvergence": 40826,
  "Ġruled": 8879,
  "Ġinjected": 25077,
  "Ġtaps": 34531,
  "ĠAnkara": 28760,
  "Ġfelon": 46849,
  "ĠCemetery": 35637,
  "Kids": 40229,
  "Ġunanimous": 28085,
  "olated": 50027,
  "ĠSQU": 45880,
  "Ġreminis": 21484,
  "Ġmonument": 17757,
  "ĠRail": 12950,
  "Ġ15": 1315,
  "Ġcongreg": 30663,
  "AP": 2969,
  "super": 16668,
  "Ġmarriages": 20102,
  "Ġaltered": 14294,
  "ĠRegion": 17718,
  "=\"\"": 33151,
  "ĠPiper": 33503,
  "ĠMeasures": 45040,
  "ĠIrving": 26101,
  "Ġinvoked": 24399,
  "Ġfaculty": 12829,
  "Ġprolong": 16761,
  "ffic": 2108,
  "ATIONAL": 29912,
  "ILY": 33340,
  "essel": 7878,
  "Ġimplants": 35223,
  "Ġdestroys": 27838,
  "Ġassert": 6818,
  "Ġracially": 28824,
  "plate": 6816,
  "obbies": 41372,
  "Ġswimming": 14899,
  "Ġsees": 7224,
  "Ĕ": 208,
  "bett": 48138,
  "ĠDevelopment": 7712,
  "Ġindicating": 12739,
  "Ġbruising": 45468,
  "Ġamended": 11412,
  "Ġplays": 5341,
  "ĠDublin": 18220,
  "Ġhooks": 26569,
  "Ġreconc": 19331,
  "Ġbeet": 25679,
  "Ġconceptions": 49849,
  "ĠUpload": 36803,
  "ate": 378,
  "Ġprecautions": 31320,
  "Ġè": 5525,
  "manuel": 18713,
  "Ġants": 27842,
  "ĠKane": 20055,
  "social": 14557,
  "Streamer": 28696,
  "Ġsliced": 26790,
  "ĠMalt": 23729,
  "Ġinteractive": 14333,
  "Ġministry": 11957,
  "ĠDarling": 49825,
  "mmmm": 40133,
  "hift": 29323,
  "Ġferry": 26450,
  "developed": 33082,
  "Ġdisciplinary": 24737,
  "ĠToggle": 34098,
  "Ġmanufacture": 6161,
  "ĠSpit": 48377,
  "ĠRegulatory": 38018,
  "urchase": 18737,
  "Ġvitality": 41687,
  "Ġturtle": 28699,
  "arg": 853,
  "Ġcurtain": 29461,
  "Cond": 25559,
  "Ġsought": 7194,
  "Ġcitiz": 3523,
  "Ġpenis": 16360,
  "otide": 45608,
  "ĠCarnage": 44177,
  "Ġ114": 17342,
  "Ġyelled": 22760,
  "ĠAlexandra": 44075,
  "ĠJacket": 44891,
  "First": 5962,
  "Ġsubsequently": 12412,
  ":{": 29164,
  "anamo": 33524,
  "ĠCoup": 43156,
  "Ġhospitality": 33362,
  "ĠProvision": 43161,
  "'re": 821,
  "atism": 26185,
  "ino": 2879,
  "ĠGloria": 38109,
  "Ġhtml": 27711,
  "ø": 180,
  "Ġsudo": 21061,
  "xual": 5541,
  "ĠELECT": 46323,
  "dose": 34436,
  "ĠGab": 12300,
  "Ġfibre": 33073,
  "lesi": 36027,
  "ixture": 9602,
  "ĠActs": 25528,
  "Ġredirected": 45158,
  "size": 7857,
  "ĠSchl": 48467,
  "Ġvast": 5909,
  "ãĥ¼ãĥ³": 31708,
  "ĠSkydragon": 38250,
  "ĠSph": 45368,
  "Ġcorridors": 32807,
  "Ġhorr": 12731,
  "axies": 25472,
  "ĠCourtney": 36677,
  "wood": 3822,
  "Ġcomponents": 6805,
  "ĠMen": 6065,
  "Ġoffer": 2897,
  "ĠTrevor": 25389,
  "ussy": 14650,
  "Vill": 42074,
  "ĠPhillies": 36552,
  "Ġshelves": 20726,
  "Ġrespondents": 14502,
  "ĠArmy": 5407,
  "groupon": 14531,
  "ĠBench": 25187,
  "Ġweren": 6304,
  "'t": 470,
  "Ġacknowledges": 23477,
  "UMP": 20476,
  "Ġstigma": 26695,
  "Redditor": 34832,
  "lyak": 43782,
  "ĠSays": 28628,
  "LINE": 24027,
  "Dispatch": 49354,
  "isconsin": 8816,
  "ister": 1694,
  "ĠNigel": 28772,
  "inct": 4612,
  "291": 33551,
  "Ġcam": 12172,
  "jin": 18594,
  "paren": 11730,
  "levision": 5024,
  "Winged": 47418,
  "Ġknock": 10643,
  "Ġfetch": 21207,
  "vertising": 31809,
  "brow": 25367,
  "Ġhorrors": 26611,
  "ĠHockey": 17277,
  "Ġheadset": 23492,
  "ĠCumm": 30316,
  "ĠConserv": 7162,
  "Ġpond": 16723,
  "ĠTheir": 5334,
  "Ġsmuggling": 29529,
  "hex": 33095,
  "Ġtakeoff": 45306,
  "Ġcocaine": 15144,
  "Ġcorrespondent": 21076,
  "Ġlegislative": 10828,
  "ãģĦ": 18566,
  "ĠWritten": 22503,
  "Ġbased": 1912,
  "Ġgreat": 1049,
  "rush": 37357,
  "Ġsheets": 15747,
  "Ġseamlessly": 33681,
  "Bir": 50091,
  "etus": 29158,
  "amacare": 11724,
  "ĠLuthor": 47506,
  "ICS": 19505,
  "*=-": 48069,
  "Ġreception": 16307,
  "ĠReduced": 39963,
  "Ġslender": 36808,
  "Ġvari": 5553,
  "Acknowled": 39482,
  "foot": 5898,
  "Ġassass": 10519,
  "Ġpriest": 11503,
  "Charl": 24453,
  "Ġropes": 31001,
  "Ġallocation": 20157,
  "à¨": 19469,
  "Ġdont": 17666,
  "ĠDexterity": 40537,
  "Ġconclud": 5392,
  "Ġdevices": 4410,
  "ĠInspection": 47115,
  "Merc": 42981,
  "Ġaromatic": 48440,
  "Ġfloated": 29742,
  "ĠOk": 6762,
  "Ġbond": 6314,
  "Sent": 31837,
  "ocks": 3320,
  "ĠPeaks": 38051,
  "hurst": 33500,
  "Crystal": 43752,
  "iner": 7274,
  "Ġabundantly": 49244,
  "Ġlayer": 7679,
  "414": 37309,
  "Ġenh": 5881,
  "Ġallows": 3578,
  "side": 1589,
  "Occup": 47658,
  "Ġexponent": 28622,
  "Ġunusual": 8468,
  "ĠÃ©": 38251,
  "ĠOPEC": 49280,
  "Ġassign": 8333,
  "Ġpenetrate": 28302,
  "Ġworked": 3111,
  "Write": 16594,
  "innamon": 21920,
  "Ġintersect": 36177,
  "Android": 25934,
  "Ġ!": 5145,
  "Fortunately": 31276,
  "Ġfuzzy": 34669,
  "Ġrunoff": 37536,
  "Ġdeadly": 10309,
  "Ġharbour": 39720,
  "Ġ117": 19048,
  "atoes": 15048,
  "ĠUEFA": 40858,
  "ĠRubin": 34599,
  "570": 39254,
  "1989": 25475,
  "ALL": 7036,
  "Ġstamina": 32312,
  "£": 96,
  "ĠGenerations": 46003,
  "ĠValiant": 47781,
  "ĠREALLY": 36413,
  "ĠStones": 26596,
  "Ġaccelerating": 32253,
  "ĠKlaus": 49739,
  "Ġcomplement": 16829,
  "ĠHirosh": 35763,
  "Ġupstairs": 26148,
  "enforcement": 44976,
  "Ġseismic": 37463,
  "End": 12915,
  "Ġfrustration": 14285,
  "Ġelectr": 30880,
  "Ġclassified": 10090,
  "ĠPedro": 28855,
  "--------------------------------": 3880,
  "Ġinsane": 13251,
  "ĠKnox": 27633,
  "ĠUnder": 4698,
  "assault": 46635,
  "Ġbabe": 42666,
  "MC": 9655,
  "Ġinning": 21648,
  "owe": 47097,
  "108": 15711,
  "Ġsalsa": 49529,
  "Ġ...\"": 35713,
  "Ġimpede": 43195,
  "VT": 36392,
  "Ġblaming": 24630,
  "Ġendpoint": 36123,
  "ĠWindows": 3964,
  "script": 12048,
  "Ġuprising": 26312,
  "Ġcanceled": 19994,
  "Push": 49222,
  "Ġbillion": 2997,
  "ĠCalendar": 26506,
  "wana": 49484,
  "ulas": 25283,
  "Ġfunk": 46212,
  "Ġfirewall": 32928,
  "Ġcreations": 28443,
  "888": 28011,
  "Ġcannabin": 30716,
  "ĠImperium": 38929,
  "ĠMulti": 15237,
  "ĠCent": 1979,
  "Ġcabal": 47548,
  "Ġword": 1573,
  "\"-": 26793,
  "rup": 12618,
  "Ġseeks": 12932,
  "ĠProtection": 9985,
  "\\\\\\\\": 13426,
  "About": 8585,
  "ĠPu": 11634,
  "alez": 22149,
  "Motor": 34919,
  "Ġtrail": 8025,
  "Ġwaking": 23137,
  "pped": 1496,
  "Ġcleaners": 50102,
  "Ġfactual": 27234,
  "ĠIsn": 25110,
  "Ġcoincides": 47387,
  "ĠIvy": 27386,
  "ĠScar": 12089,
  "ĠRamsey": 30552,
  "ĠWhis": 28424,
  "Ġdagger": 31322,
  "ONT": 35830,
  "Ġrave": 46242,
  "Ġuncont": 28605,
  "ĠWins": 24423,
  "\\": 59,
  "Ġreconnaissance": 39471,
  "Ġwrongful": 41545,
  "Ġ216": 26881,
  "Ġadvisor": 20685,
  "Ġauthenticity": 26275,
  "://": 1378,
  "em": 368,
  "Ġinspir": 32285,
  "umn": 4182,
  "uminium": 35241,
  "ĠEt": 17906,
  "Ġrecruits": 23096,
  "ĠSie": 48931,
  "Ġarea": 1989,
  "ĠYad": 41449,
  "ma": 2611,
  "Ġmeal": 9799,
  "yang": 17859,
  "Ġbun": 28773,
  "Club": 42350,
  "weight": 6551,
  "oha": 28083,
  "Ġchief": 4039,
  "oop": 11224,
  "waukee": 15428,
  "Many": 7085,
  "ĠBeta": 17993,
  "ĠIg": 28818,
  "ĠJensen": 32623,
  "ï¿½ï¿½ï¿½": 48585,
  "ĠWalls": 40699,
  "ĠCheese": 27601,
  "umenthal": 42300,
  "Ġneuro": 7669,
  "agu": 11433,
  "Ġwhistleblower": 34875,
  "Ġessentially": 6986,
  "gradation": 26317,
  "ĠTF": 24958,
  "Ġjoystick": 49485,
  "Ġunic": 28000,
  "ĠGupta": 42095,
  "Ġcapable": 6007,
  "ĠDunham": 44588,
  "Ġeaten": 17065,
  "runner": 16737,
  "Ġpermit": 8749,
  "rawling": 18771,
  "Ġappoint": 5393,
  "Ġlun": 14678,
  "Ġmerch": 12487,
  "Ġmanifests": 42190,
  "ypes": 9497,
  "ĠDmit": 35438,
  "Ġunhealthy": 27942,
  "Ġsexy": 17144,
  "Ġpricey": 43244,
  "Ġunleash": 33502,
  "remove": 28956,
  "ĠWorkshop": 26701,
  "Haw": 33055,
  "Ġdraft": 4538,
  "Ġadjoining": 48106,
  "Integ": 34500,
  "innon": 45067,
  "Ġcoy": 34003,
  "igl": 38686,
  "Sunday": 21934,
  "ĠSubmission": 42641,
  "Ġprevent": 2948,
  "105": 13348,
  "reements": 28919,
  "ĠWink": 48450,
  "Ġparent": 2560,
  "angle": 9248,
  "Ġfaked": 49184,
  "Ġturbulence": 47741,
  "itches": 9249,
  "ĠBasketball": 25911,
  ".âĢĶ": 13402,
  "Ġmalware": 18953,
  "Ġmulticultural": 34641,
  "Ġflick": 26810,
  "Ġconcert": 10010,
  "Ġfunds": 5153,
  "ĠCos": 10437,
  "competitive": 46131,
  "Ġadvanced": 6190,
  "Ġstruct": 2878,
  "Ġdues": 40789,
  "espie": 42120,
  "xus": 40832,
  "Ġsynt": 7419,
  "Ġlaughable": 47623,
  "Ġbutcher": 38042,
  "Ġshootout": 34995,
  "ĠCody": 27035,
  "Journal": 25296,
  "Ġmocked": 29180,
  "Ġletters": 7475,
  "ipolar": 49133,
  "ĠError": 13047,
  "Ġoutlined": 16493,
  "Ġinexplicable": 49602,
  "Ġauthorize": 29145,
  "ĠHe": 679,
  "Ġnationalists": 32442,
  "ĠEmpires": 35102,
  "Ġyes": 3763,
  "ĠIps": 47177,
  "aine": 5718,
  "Ġprovisional": 37042,
  "ĠChanged": 32068,
  "Ġmisconceptions": 45679,
  "ĠContains": 49850,
  "Ġceased": 24368,
  "Ġdiscern": 22024,
  "Ġloyalty": 15843,
  "asketball": 14575,
  "Ġ911": 16679,
  "height": 17015,
  "Interface": 39317,
  "Ġinfiltrate": 42111,
  "Ġgraves": 30055,
  "Ġintr": 9913,
  "Similarly": 28039,
  "Ġtypical": 7226,
  "Ġrobust": 12373,
  "ĠAscension": 41416,
  "Ġmilk": 7545,
  "Ġclassic": 6833,
  "het": 3202,
  "Ġpresidents": 19033,
  "etic": 5139,
  "ĠexternalTo": 30208,
  "ĠBrass": 32309,
  "iv": 452,
  "uo": 20895,
  "Ġinequalities": 45460,
  "isms": 6583,
  "Ġpolluted": 42340,
  "ĠDeng": 41985,
  "Ġindicate": 7603,
  "Trivia": 23854,
  "Ġcrackdown": 22671,
  "ĠTotal": 7472,
  "igon": 37107,
  "Ġheav": 6002,
  "Ġoverwhel": 7678,
  "Ġsurging": 44298,
  "Ġhamm": 25755,
  "Ġrewarded": 20945,
  "Ġsphere": 16558,
  "rology": 31142,
  "Ġcovered": 5017,
  "pointer": 29536,
  "Ġtimid": 44295,
  "Ġliner": 35940,
  "Ġunus": 7242,
  "Ġdiverted": 35673,
  "Ġbundled": 34358,
  "Ġhormones": 21311,
  "ĠHz": 26109,
  "Ġbeam": 15584,
  "ĠPrincess": 8449,
  "Ġplenty": 6088,
  "Ġforest": 8222,
  "ĠXan": 47482,
  "sequent": 44399,
  "ĠKev": 46105,
  "Lie": 47918,
  "ĠSpur": 47788,
  "Ġlobbied": 40835,
  "Ġoutside": 2354,
  "Mo": 16632,
  "Ġgimm": 33135,
  "Ġepidem": 24574,
  "duct": 2359,
  "Ġcalculus": 41443,
  "Ġspots": 10222,
  "ĠSas": 23771,
  "ĠIk": 32840,
  "Ġshakes": 29959,
  "Ġmattered": 33343,
  "ĠRomney": 8431,
  "Ġextracted": 21242,
  "Ġrevert": 34052,
  "Ġgenerated": 7560,
  "ovic": 17215,
  "Ġpropensity": 41121,
  "Ġcosmetics": 36432,
  "ĠActions": 24439,
  "Ġmajority": 3741,
  "Ġ1928": 35768,
  "estate": 44146,
  "type": 4906,
  "ĠStoke": 36178,
  "Ġhairs": 32908,
  "dragon": 14844,
  "Ġmoderator": 31847,
  "ousand": 29910,
  "Ġsector": 6567,
  "Ġdistressed": 36233,
  "Ġhandle": 5412,
  "Ġexamines": 28025,
  "Ġconcise": 35327,
  "Ø¹": 44690,
  "ĠSty": 42378,
  "ACT": 10659,
  "ĠCoalition": 15135,
  "Vaults": 33937,
  "Ġlamp": 20450,
  "elligent": 32940,
  "593": 49051,
  "outhern": 4927,
  "Ġbases": 12536,
  "ĠExample": 17934,
  "455": 30505,
  "adena": 38047,
  "Ġinflammation": 20881,
  "Ġevid": 25568,
  "ront": 4298,
  "mud": 41650,
  "ĠExcellence": 42525,
  "rain": 3201,
  "Ġtad": 36264,
  "Ġpartake": 48513,
  "425": 32114,
  "ative": 876,
  "ĠTogether": 17083,
  "Pool": 27201,
  "Ġtoolbar": 50149,
  "odder": 35346,
  "Ġeducator": 45562,
  "ĠSven": 44611,
  "ĠSphere": 31798,
  "oresc": 45166,
  "icity": 8467,
  "ĠLGBT": 9916,
  "ĠFest": 26812,
  "ĠPrevent": 31572,
  "Ġscripting": 36883,
  "Ġevolving": 21568,
  "Ġunintentionally": 44793,
  "ĠNaz": 12819,
  "Ġwra": 7917,
  "ĠAxis": 38349,
  "ĠOmar": 24980,
  "ĠGlasgow": 23995,
  "gm": 39870,
  "rael": 2510,
  "Ġsentiment": 15598,
  "Program": 15167,
  "Ġwiping": 36906,
  "Ġ88": 9193,
  "Ġtwisted": 19074,
  "ĠBane": 38112,
  "ĠSoccer": 15872,
  "ĠVIP": 24791,
  "Ġpizz": 38748,
  "Ġreligious": 4158,
  "ĠPhotography": 32461,
  "ĠTerrorism": 33184,
  "ca": 6888,
  "ĠAber": 27700,
  "Node": 19667,
  "ric": 1173,
  "ĠShares": 23997,
  "Ġpope": 26850,
  "ĠQual": 9537,
  "bial": 25200,
  "Ġqualifying": 18677,
  "Ġbadges": 37583,
  "anky": 39556,
  "Ġ267": 37364,
  "Ġbeads": 36116,
  "posing": 32927,
  "?)": 10091,
  "REAM": 32235,
  "mus": 14664,
  "Ġoptimization": 23989,
  "ĠLawson": 35892,
  "ĠAustral": 3138,
  "bj": 50007,
  "ĠConvention": 11680,
  "ĠBuddhist": 20838,
  "Ġ332": 41423,
  "uni": 35657,
  "Ġwax": 20302,
  "Ġdeposit": 14667,
  "print": 4798,
  "Ġgloves": 18051,
  "Ġ175": 19038,
  "Ġwww": 7324,
  "ĠDot": 22875,
  "ĠNas": 22767,
  "Ġperman": 6092,
  "Ġpersistence": 30802,
  "Ġdi": 2566,
  "dd": 1860,
  "ĠCouch": 48225,
  "ĠRou": 13876,
  "Ġcalled": 1444,
  "ĠCorpor": 8422,
  "Ġdwellings": 50078,
  "ĠRugby": 26244,
  "assi": 46527,
  "Ġelectrom": 26629,
  "Ġsane": 33241,
  "Ġworsening": 42373,
  "Richard": 22245,
  "omic": 10179,
  "ĠHerrera": 46508,
  "Ġseat": 5852,
  "ĠMiner": 29295,
  "----------------": 1783,
  "ĠHole": 24478,
  "Ġfascinated": 30103,
  "Ġvicious": 17686,
  "History": 18122,
  "Ġenticing": 47460,
  "ĠMoj": 40120,
  "Ġtechnology": 3037,
  "Ġevasion": 30877,
  "ĠContemporary": 38698,
  "ĠDiscount": 43474,
  "Ġpractitioners": 24068,
  "Indiana": 49153,
  "Ġinspiration": 12141,
  "pton": 10972,
  "usercontent": 43667,
  "ĠEld": 19208,
  "EA": 16412,
  "Aw": 23155,
  "Ġprecision": 15440,
  "Ġtwitch": 37366,
  "Ġpave": 23000,
  "QU": 10917,
  "Feel": 35114,
  "ongs": 28079,
  "Ġeyebrows": 26928,
  "event": 15596,
  "ĠErnest": 34705,
  "Ġgy": 21486,
  "ĠSelling": 47919,
  "heast": 9522,
  "ependence": 15091,
  "ĠFunding": 35249,
  "ĠMexico": 5828,
  "ĠChandler": 28346,
  "ĠBrand": 13512,
  "Ġbeloved": 14142,
  "¼": 120,
  "801": 41531,
  "Ġadverse": 12681,
  "ĠMG": 34809,
  "acist": 20279,
  "Ġ59": 7863,
  "Ġstatist": 10118,
  "cule": 23172,
  "Ġodd": 5629,
  "Ġpill": 9582,
  "([": 26933,
  "Ġquickly": 2952,
  "Ġstuck": 7819,
  "ĠOrig": 6913,
  "ĠEmergency": 18154,
  "Ġtreason": 32204,
  "ĠPaula": 36025,
  "urous": 29277,
  "Ġstadium": 10308,
  "Charlie": 37136,
  "ont": 756,
  "Rel": 6892,
  "ĠIraqi": 10420,
  "Ġprominent": 9208,
  "Ġderiv": 16124,
  "renches": 33650,
  "Ġballoons": 35485,
  "Ġeasing": 33672,
  "ĠDEFENSE": 48551,
  "ĠNFL": 5134,
  "Ġrevolutions": 37888,
  "ĠHimal": 42438,
  "Ġjumping": 14284,
  "Ġ4": 604,
  "opal": 33067,
  "ĠTuring": 39141,
  "Ġ312": 34465,
  "analysis": 20930,
  "ĠEntry": 21617,
  "Ġfunctionality": 11244,
  "Blade": 47520,
  "yth": 5272,
  "--------------": 26171,
  "Ġtrainers": 28514,
  "ĠJuly": 2901,
  "ĠSentinel": 26716,
  "Ġcolourful": 44799,
  "ĠBerkshire": 49927,
  "ĠNIH": 37483,
  "Ġ{": 1391,
  "kb": 32812,
  "Ġstabilized": 44945,
  "247": 23753,
  "Ġviolating": 18134,
  "vd": 20306,
  "FIELD": 44603,
  "time": 2435,
  "ĠPets": 43578,
  "ph": 746,
  "Ġcompat": 8330,
  "Ġalle": 28654,
  "Ġverification": 19637,
  "boa": 48614,
  "ĠMadd": 21457,
  "Ġamphib": 38255,
  "Ġmodifier": 23157,
  "ĠBosnia": 34292,
  "Ġstepped": 10764,
  "Ġradar": 13428,
  "Pierre": 36910,
  "ashington": 2542,
  "Americ": 5477,
  "Ġonward": 38232,
  "Ġsailor": 43272,
  "Ġ${": 25597,
  "ĠGenie": 49405,
  "Ġpassionately": 43136,
  "cel": 5276,
  "ĠMK": 20553,
  "Ġpeasants": 29177,
  "Ġbott": 3005,
  "Ġfrust": 6730,
  "ĠSteve": 6542,
  "ĠGlover": 43487,
  "identified": 19107,
  "Ġ143": 24356,
  "zed": 8863,
  "ĠUpdates": 28090,
  "Ġbuilt": 3170,
  "Ġmaintains": 16047,
  "ISSION": 40373,
  "ĠFl": 1610,
  "nery": 35865,
  "ĠThread": 14122,
  "Ġjoints": 24039,
  "Ġ---": 11420,
  "Ġjungle": 20712,
  "ĠMadagascar": 46694,
  "Marvel": 38864,
  "ĠGiant": 17384,
  "Ġ501": 24555,
  "Ġdrafted": 15937,
  "Ġappendix": 43600,
  "ĠHarden": 35017,
  "ĠDHS": 29987,
  "ĠJeb": 24298,
  "Ġmessed": 32621,
  "Ġdefensive": 6110,
  "Ġemulation": 47065,
  "balls": 21591,
  "Ġidentifier": 27421,
  "Ġshare": 2648,
  "ĠNATO": 11332,
  "Ġrepetition": 29693,
  "Ġesche": 42833,
  "Ġ().": 27972,
  "ĠCollections": 50004,
  "Ġcancelled": 16769,
  "ULTS": 35342,
  "Ġcrowds": 15779,
  "ORTS": 33002,
  "ĠPrevious": 21801,
  "ĠâĶľ": 33468,
  "Ġhop": 1725,
  "Ġ228": 29041,
  "Ġlot": 1256,
  "Ġgroup": 1448,
  "ĠML": 10373,
  "Ġgems": 23685,
  "ĠBaal": 39648,
  "Furthermore": 24951,
  "ongyang": 20659,
  "İ": 236,
  "Ġcovert": 22624,
  "Ġoutburst": 49088,
  "Ġelephants": 25368,
  "Ġlifespan": 30458,
  "Ġsubsections": 46310,
  "Ġarr": 5240,
  "wic": 22664,
  "DD": 16458,
  "ĠRust": 17103,
  "Ġmanager": 4706,
  "enses": 4541,
  "ĠTowers": 29031,
  "rb": 26145,
  "ĠGad": 20925,
  "ĠShaman": 34805,
  "Ġkarma": 31789,
  "ĠGriffith": 30469,
  "combat": 39969,
  "Ġdestination": 10965,
  "Ġcycl": 11700,
  "tags": 31499,
  "T": 51,
  "mr": 43395,
  "1975": 38449,
  "esteem": 31869,
  "kers": 15949,
  "ĠNine": 16431,
  "often": 28950,
  "RY": 18276,
  "Ġwounding": 40942,
  "ĠMassacre": 40602,
  "ĠCake": 30799,
  "ĠBUR": 45604,
  "Ġfavored": 19344,
  "Ġswallowing": 45590,
  "ĠLoaded": 42485,
  "ĠExpress": 10604,
  "raphics": 11549,
  "ardless": 14694,
  "ĠBorn": 18889,
  "Ġwholesale": 24005,
  "õ": 177,
  "Ġshapes": 15268,
  "Ġcatcher": 32408,
  "ĠPinball": 37010,
  "ĠKru": 33909,
  "ĠStark": 20956,
  "verson": 49589,
  "Ġretrieved": 29517,
  "Ġtomb": 22234,
  "?ãĢį": 42943,
  "Ġur": 2956,
  "directory": 34945,
  "Size": 10699,
  "Mods": 24239,
  "ĠSaying": 49642,
  "ĠBig": 4403,
  "Ġdelegates": 15265,
  "Ġ292": 41569,
  ":'": 32105,
  "ĠSomali": 30886,
  "Ġrecite": 46528,
  "Ġcars": 5006,
  "ĠHezbollah": 22871,
  "ĠMatter": 16900,
  "ONE": 11651,
  "ĠBend": 26874,
  "Ġdemocratically": 48517,
  "ĠAgent": 15906,
  "Ġrestructuring": 32324,
  "!'": 13679,
  "]": 60,
  "Ġpreferred": 9871,
  "ete": 14471,
  "Ġnecessarily": 6646,
  "Ġpickups": 46462,
  "Ġ<+": 42496,
  "ĠVic": 24017,
  "Ġg": 308,
  "services": 30416,
  "Ġmoreover": 33695,
  "ecycle": 47510,
  "Ġpg": 23241,
  "ĠRound": 10485,
  "Ġuproar": 40741,
  "illions": 40083,
  "Moon": 31640,
  "Lots": 43643,
  "Ġdifferently": 10338,
  "208": 21315,
  "volt": 37764,
  "ĠErica": 45187,
  "Ġblue": 4171,
  "Ġallergies": 36665,
  "sleep": 42832,
  "ĠYa": 26421,
  "Ġran": 4966,
  "ission": 1480,
  "Ġastronomers": 33162,
  "Ġfabric": 9664,
  "ĠMaharashtra": 41624,
  "ĠTemplar": 41741,
  "¿½": 4204,
  "ithing": 44556,
  "ĠLoan": 32314,
  "Ġprotections": 15018,
  "Ġalcoholic": 26016,
  "ackers": 28874,
  "hya": 48812,
  "åĩ": 49035,
  "Ġgranted": 7520,
  "Ġpurchaser": 39122,
  "Ġidentical": 10411,
  "Ġannual": 5079,
  "Ġquantities": 17794,
  "();": 9783,
  "achel": 9636,
  "ĠCrimean": 48062,
  "Ġkicking": 17997,
  "Ġ259": 37831,
  "ĠChand": 20631,
  "issues": 37165,
  "254": 24970,
  "Ġfactions": 18783,
  "ĠShine": 41249,
  "Ġtal": 3305,
  "Ġnotoriety": 46283,
  "Volume": 31715,
  "inary": 3219,
  "ĠImam": 38386,
  "dx": 34350,
  "Ġdiligently": 44243,
  "Ġhighly": 4047,
  "ã": 159,
  "Ġsprings": 24747,
  "Ġrecord": 1700,
  "ĠDefensive": 24784,
  "atters": 34387,
  "Ġembody": 48061,
  "ishable": 31785,
  "Ġ358": 41761,
  "Ġplanetary": 27047,
  "Ġmoderators": 37265,
  "Ġpierced": 41159,
  "Ġmosque": 18575,
  "Ġbumps": 34029,
  "GoldMagikarp": 42202,
  "Ġrealization": 23258,
  "abeth": 9407,
  "nen": 38572,
  "Ġgiveaways": 50020,
  "bay": 24406,
  "Ġcontroversy": 10386,
  "Ġflattering": 48259,
  "Ġ185": 22855,
  "Ġiodine": 50047,
  "Ġoccult": 31587,
  "hem": 4411,
  "Ġflagged": 34060,
  "Ġcrushed": 18577,
  "ĠWinged": 40668,
  "Ġscares": 44462,
  "acements": 28613,
  "Ġprominence": 31198,
  "Ġgore": 46835,
  "Ī": 230,
  "ials": 8231,
  "irements": 18883,
  "ĠSomeone": 17877,
  "ĠCharlie": 11526,
  "Ġdetrimental": 29417,
  "ante": 12427,
  "Ġgoals": 4661,
  "oother": 31724,
  "Ġhegemony": 46877,
  "Awesome": 49061,
  "Ġnickname": 21814,
  "pkg": 35339,
  "ĠSDL": 45417,
  "uter": 11894,
  "ĠBoe": 12415,
  "onents": 3906,
  "Ġdelve": 39130,
  "igers": 34984,
  "Ġworld": 995,
  "Ġvacated": 46346,
  "Ġfigured": 11638,
  "aby": 3930,
  "Ġspree": 37386,
  "Ġstandardized": 25713,
  "Ġens": 3140,
  "Magikarp": 41538,
  "elled": 11978,
  ",)": 35751,
  "Mex": 24670,
  "Ġcontact": 2800,
  "ĠMoreover": 10968,
  "ugu": 45284,
  "antom": 11456,
  "itated": 13939,
  "Ġtomato": 24240,
  "Ġide": 1405,
  "Ġinsisting": 23630,
  "Ġ425": 36959,
  "ĠCert": 14965,
  "!).": 19588,
  "ĠCros": 26942,
  "elly": 6148,
  "Ġcelestial": 33258,
  "Ġrac": 3444,
  "Ġ2500": 33507,
  "Ġmutated": 48865,
  "ĠSponge": 42681,
  "ĠTumblr": 24434,
  "Ġplaint": 13371,
  "ipl": 24705,
  "Ġonto": 4291,
  "Ash": 26754,
  "Changed": 31813,
  "Ġprophe": 16951,
  "Ġreopen": 37173,
  "Ġdefine": 8160,
  "Ġcommenting": 26387,
  "Ġanalysis": 3781,
  "ĠRouse": 44122,
  "Ġignoring": 15482,
  "Ġinvasion": 11796,
  "Ġko": 41727,
  "ĠShad": 46961,
  "ĠHover": 38452,
  "Ġalternating": 39623,
  "Ġnicknamed": 35786,
  "Ġabund": 12467,
  "forest": 29623,
  "sylvania": 9270,
  "Ġprotagonists": 39558,
  "Luke": 30730,
  "Ġallowing": 5086,
  "Ġindependently": 14799,
  "mable": 44102,
  "Ġentrepreneurship": 44436,
  "ĠHolden": 43393,
  "gars": 25821,
  "Ġdemands": 8665,
  "Ġcleared": 12539,
  "Compare": 41488,
  "ĠRosenstein": 41916,
  "ls": 7278,
  "Ġsolid": 4735,
  "veyard": 21563,
  "Ġjoked": 27582,
  "ĠLaura": 16753,
  "Unt": 35792,
  "Ġexasper": 41851,
  "Ġfrost": 21682,
  "ĠBag": 20127,
  "robat": 40655,
  "Ġtent": 11105,
  "Ġate": 15063,
  "Ġcommunicating": 22889,
  "vp": 36133,
  "ACY": 43300,
  "âĺ": 24583,
  "ĠDefense": 5947,
  "Ġbrown": 7586,
  "ulated": 4817,
  "Ġ(@": 4275,
  "Ġcruiser": 35239,
  "ĠMidwest": 25701,
  "Ġquantum": 14821,
  "JM": 50229,
  "ously": 3481,
  "rina": 22267,
  "Ġdeteriorating": 43229,
  "Ġfram": 5346,
  "Ġyield": 7800,
  "ĠPhilosophy": 26099,
  "trop": 48385,
  "Ġappeared": 4120,
  "Ġloader": 40213,
  "respected": 48268,
  "nat": 32353,
  "UG": 7340,
  "anse": 40054,
  "ĠNPCs": 28167,
  "Parent": 24546,
  "ãĥ³": 6527,
  "ĠTaking": 20879,
  "ĠVik": 10447,
  "Ġbasic": 4096,
  "Ġnavy": 23956,
  "ĠCous": 27456,
  "ĠEvaluation": 34959,
  "ugi": 45659,
  "Market": 27470,
  "Ġca": 1275,
  "class": 4871,
  "Ġgamer": 26713,
  "Ġlengths": 20428,
  "ĠLafayette": 41388,
  "430": 31794,
  "Ġthroats": 49012,
  "Ġdestroying": 13897,
  "Ġforged": 24918,
  "Ġstellar": 25041,
  "Ġmanifested": 34300,
  "iffin": 42022,
  "Ġmasturbation": 41054,
  "Ġerection": 42056,
  "}": 92,
  "ĠKand": 50224,
  "ĠSocialism": 40407,
  "Ġward": 15305,
  "Ġstarring": 20495,
  "Ġsund": 37437,
  "Ġharvest": 13222,
  "Ġinexper": 31830,
  "VG": 43490,
  "Ġrepositories": 38072,
  "VB": 44526,
  "rem": 2787,
  "speech": 45862,
  "ĠCM": 16477,
  "FS": 10652,
  "Ġself": 2116,
  "ations": 602,
  "Res": 4965,
  "Ġfolds": 38744,
  "Ġwalks": 11114,
  "Ġunstable": 21354,
  "Ġmercury": 27394,
  "Ġkiss": 9245,
  "afe": 8635,
  "Brien": 20118,
  "ĠAbyss": 16681,
  "Ġcontro": 1246,
  "USA": 14053,
  "ĠSmart": 10880,
  "Ġmaiden": 34827,
  "TRY": 40405,
  "ĠBallistic": 48738,
  "ĠATK": 24526,
  "ĠNost": 48150,
  "ĠIndustries": 20171,
  "Ġfarmers": 9818,
  "Trans": 8291,
  "Ġinherit": 16955,
  "Ġsand": 6450,
  "ĠProblem": 20647,
  "Ġalignment": 19114,
  "Ġairs": 37112,
  "performing": 37440,
  "Wisconsin": 49097,
  "umper": 15829,
  "rian": 4484,
  "Allow": 35265,
  "Ġexists": 7160,
  "Ġge": 4903,
  "Ġentrance": 10384,
  "serv": 3168,
  "Ġsymbolic": 18975,
  "ĠCENT": 33269,
  "Ġmetric": 18663,
  "ĠIF": 16876,
  "Ġbrood": 50167,
  "Ġguessed": 25183,
  "Ġaer": 9551,
  "Ġcompet": 2307,
  "ĠChao": 41024,
  "296": 27137,
  "ĠTablet": 42399,
  "ingo": 32735,
  "Ġkios": 46739,
  "ĠChu": 25459,
  "angler": 49910,
  "Ġrestrooms": 48537,
  "ĠCommunity": 8108,
  "Ġupgrades": 16608,
  "Orderable": 39655,
  "zynski": 47143,
  "AR": 1503,
  "ĠLet": 3914,
  "Ġbackground": 4469,
  "Ġsellers": 23531,
  "Ġinitiation": 30122,
  "ĠMAP": 34645,
  "ĠLINK": 34426,
  "Ġbaths": 49076,
  "ĠWeiss": 16152,
  "ĠGomez": 33231,
  "Ġmur": 4636,
  "ĠHQ": 25112,
  "Ġdistant": 12899,
  "Ġdisob": 30163,
  "Ġstomp": 32221,
  "ampires": 27933,
  "Ġpinned": 25711,
  "Information": 21918,
  "ĠGL": 10188,
  "ĠJulia": 22300,
  "iami": 7871,
  "liners": 34380,
  "Ġinsistence": 30696,
  "Ġghetto": 46482,
  "Ġdelivers": 16316,
  "Ġwarped": 43062,
  "ĠSantorum": 34008,
  "Loop": 39516,
  "ĠIntrodu": 11036,
  "ĠMixed": 35250,
  "ĠHum": 11054,
  "642": 41290,
  "Ġunprotected": 42069,
  "Ġintersection": 16246,
  "pleted": 16838,
  "Together": 41631,
  "idd": 1638,
  "ĠTrends": 34308,
  "rounder": 45788,
  "classic": 49421,
  "ĠDynamics": 33806,
  "interface": 39994,
  "sq": 31166,
  "Ġarrival": 10325,
  "ĠGarland": 35466,
  "uds": 24786,
  "Sen": 10445,
  "ort": 419,
  "Ġstorefront": 45527,
  "multi": 41684,
  "ĠFork": 39812,
  "Ġexceeds": 21695,
  "rington": 24833,
  "Ġobjectives": 15221,
  "Ġrecurring": 24824,
  "@#&": 48193,
  "Ġ24": 1987,
  "Ta": 38586,
  "ibur": 38616,
  "atile": 12610,
  "Ġcomma": 39650,
  "993": 44821,
  "ĠPsal": 40601,
  "Ġthanks": 5176,
  "Ġphrase": 9546,
  "Ġsynthes": 24983,
  "Ġmonthly": 9651,
  "Ġmom": 1995,
  "Ġkilled": 2923,
  "Ġpolish": 25245,
  "Ġpathway": 21182,
  "Hom": 28718,
  "668": 35809,
  "ever": 964,
  "Ġstreaming": 11305,
  "Ġgrabbing": 23256,
  "ANI": 43664,
  "ĠMore": 3125,
  "Wallet": 47152,
  "hum": 17047,
  "vasive": 23747,
  "Ġwedge": 35901,
  "Ġreside": 26412,
  "ĠEco": 38719,
  "ĠCavern": 40230,
  "Ġdwind": 30692,
  "Ġrust": 17000,
  "ĠMachina": 36781,
  "ĠEndurance": 43290,
  "Ġswell": 36214,
  "ĠCAT": 38348,
  "ĠCookies": 45305,
  "Ġspeeds": 12055,
  "Ġcurrencies": 19247,
  "ĠCipher": 44334,
  "Ġdowntown": 9436,
  "container": 34924,
  "Ø¨": 39848,
  "NULL": 33991,
  "Ġque": 8358,
  "Ġdispensaries": 40698,
  "ĠInterface": 26491,
  "ĠPCB": 28700,
  "Ġgre": 10536,
  "Ġmicrosc": 21145,
  "ĠWizard": 16884,
  "Ġvaccinations": 46419,
  "ãĥĲ": 29659,
  "ĠGotham": 30129,
  "ĠBabel": 50175,
  "Ġgland": 37917,
  "Ġpillow": 28774,
  "ighters": 6261,
  "iots": 16228,
  "orously": 24882,
  "Ġnear": 1474,
  "steel": 44822,
  "Ġconceive": 33669,
  "Hash": 26257,
  "Ġfarm": 5318,
  "Ġ504": 41612,
  "Ġbehavior": 4069,
  "Ultra": 36122,
  "ENC": 24181,
  "Ġusage": 8748,
  "Ġ475": 45881,
  "ĠCOURT": 46627,
  "ĠElliot": 30451,
  "Ġboat": 8848,
  "Connect": 13313,
  "missing": 45688,
  "kt": 21841,
  "something": 18927,
  "ĠLevine": 38294,
  "Ġconcentrated": 17298,
  "ĠApostle": 29748,
  "ĠSignal": 26484,
  "Ġ{*": 48683,
  "Ġsinks": 38614,
  "ĠBust": 36988,
  "along": 24176,
  "GBT": 9146,
  "approved": 29137,
  "rences": 34303,
  "ĠTaco": 40129,
  "ĠEnter": 6062,
  "external": 22615,
  "Ġenacted": 17814,
  "bridge": 9458,
  "ĠStories": 18152,
  "ĠRanger": 21888,
  "ĠParticipation": 34408,
  "ãĤĭ": 25748,
  "abb": 6485,
  "Uber": 39018,
  "ĠMexicans": 36783,
  "VM": 15996,
  "Ġ58": 7618,
  "Ġinvitation": 17023,
  "Ġbooze": 39399,
  "Ġchore": 30569,
  "ï": 171,
  "Pod": 41565,
  "ĠKak": 31250,
  "Ġnortheast": 24287,
  "ĠMecca": 35247,
  "itri": 49510,
  "RAL": 35296,
  "Âł": 1849,
  "loaded": 14578,
  "Ġantib": 11310,
  "ĠSonic": 18426,
  "ĠUNITED": 49668,
  "Ġassociated": 3917,
  "fields": 25747,
  "Ġshowers": 32290,
  "''": 7061,
  "gre": 16694,
  "Ġcomm": 725,
  "ĠInstead": 5455,
  "amide": 37905,
  "Ġtyp": 2170,
  "Ġdrove": 10357,
  "ĠWAS": 21725,
  "Ġrelating": 11270,
  "Ġindoor": 22639,
  "Ġcaval": 25820,
  "Ġassemblies": 37398,
  "ĠParallel": 42945,
  "Ġtackling": 26348,
  "ĠScore": 15178,
  "=-=-=-=-=-=-=-=-": 46402,
  "Ġothers": 1854,
  "ĠWindsor": 31561,
  "Marc": 22697,
  "Ġga": 31986,
  "ocrats": 21988,
  "Ġ428": 45063,
  "Ġexclaim": 48775,
  "soc": 35634,
  "Ġspecializes": 29786,
  "Ġaltar": 18890,
  "Ġ00000000": 27551,
  "Ġattended": 9141,
  "cox": 40359,
  "ĠEducation": 7868,
  "Ġantiquity": 46599,
  "adra": 49456,
  "Ġcommentary": 14604,
  "ĠUSC": 18928,
  "Ġhomosexuality": 19822,
  "isine": 27480,
  "foreseen": 44952,
  "letal": 47293,
  "ancy": 3883,
  "Ġiod": 41080,
  "ĠRecord": 13266,
  "ĠReyes": 40599,
  "Ġcountered": 32925,
  "ĠAttention": 47406,
  "ĠMal": 4434,
  "ĠPotato": 43876,
  "526": 48531,
  "ĠFaust": 47411,
  "Sex": 23398,
  "Ġflows": 15623,
  "Ġinsurgent": 46062,
  "secondary": 38238,
  "agger": 7928,
  "System": 11964,
  "Ġ265": 32090,
  "market": 10728,
  "ĠPas": 17454,
  "Ġflyer": 42464,
  "Ġguarded": 28178,
  "Freedom": 38885,
  "Ġencounter": 8791,
  "Ġgauge": 18266,
  "omer": 12057,
  "Ġapprovals": 45818,
  "otos": 14163,
  "degree": 16863,
  "invest": 24859,
  "LESS": 48481,
  "UST": 7759,
  "ĠBlacks": 27875,
  "ĠCann": 12283,
  "ĠattRot": 35207,
  "Ġsolely": 9944,
  "Ġ71": 9166,
  "aml": 43695,
  "Ġrealised": 19169,
  "Ġeffect": 1245,
  "Ġpacks": 15186,
  "oru": 27786,
  "Ġbloody": 15222,
  "ĠDianne": 49197,
  "Ġlows": 34119,
  "Ġpolls": 9231,
  "ĠExtend": 46228,
  "Category": 27313,
  "Brand": 38416,
  "--": 438,
  "ĠNil": 29213,
  "Ġdemonstrating": 21135,
  "ĠBarack": 8732,
  "ĠBreath": 26988,
  "ĠTransactions": 46192,
  "ĠPlum": 43178,
  "ĠSEC": 10729,
  "Ġsubconscious": 30931,
  "Ġhurled": 43186,
  "Ġanarchism": 41661,
  "Ġtorment": 33378,
  "Ġhighway": 12763,
  "Ġcurs": 13882,
  "Jane": 41083,
  "Ġfide": 43340,
  "AMP": 23518,
  "ĠCRA": 33416,
  "Ġunable": 5906,
  "Ġpredictably": 45741,
  "ĠRIS": 45698,
  "×¨": 37778,
  "ĠBelle": 31974,
  "Ġmonarchy": 35184,
  "Ġ317": 37563,
  "Sorry": 14385,
  "ĠEVEN": 45886,
  "uits": 15379,
  "Ġrises": 16736,
  "iform": 6933,
  "India": 21569,
  "Ġrefrain": 25133,
  "784": 37688,
  "qualified": 22557,
  "uran": 42211,
  "iors": 12706,
  "Ġab": 450,
  "snap": 45380,
  "ĠJJ": 38775,
  "Ġtones": 23755,
  "Ne": 8199,
  "Ġdramatically": 12034,
  "Ġseriousness": 32095,
  "Ġvortex": 42726,
  "ĠABOUT": 33478,
  "Ġflew": 13112,
  "sf": 28202,
  "ovan": 22590,
  "rift": 35357,
  "Ġlead": 1085,
  "Ġglucose": 15701,
  "ighton": 42993,
  "Ġcomprehension": 35915,
  "Ġtoddler": 30773,
  "js": 8457,
  "uously": 24987,
  "chie": 3043,
  "Nazi": 31343,
  "bu": 11110,
  "ĠInstagram": 10767,
  "Effects": 47738,
  "Ġlate": 2739,
  "Admin": 46787,
  "ĠPepper": 24346,
  "Ġspecializing": 40847,
  "MH": 36208,
  "Bear": 36352,
  "ĠConservation": 23702,
  "mia": 20730,
  "Ġpop": 1461,
  "Ġobsessed": 21366,
  "interpret": 27381,
  "Ġrotor": 44883,
  "Ġsuppress": 18175,
  "Ġmodifications": 19008,
  "ĠProf": 4415,
  "Ġpipeline": 11523,
  "ĠNapoleon": 28283,
  "Ġresearcher": 13453,
  "Ġmage": 29241,
  "ĠPathfinder": 37025,
  "icult": 2249,
  "Ġcorridor": 20749,
  "Ġfut": 13294,
  "ĠMari": 29423,
  "Construct": 42316,
  "Ġmurder": 5123,
  "Ġâī": 15139,
  "parency": 11944,
  "Ġopposing": 12330,
  "Ġcorporate": 6355,
  "ceive": 15164,
  "oslav": 26388,
  "ĠAlchemist": 36084,
  "Although": 7003,
  "Ġresurrection": 27556,
  "ĠWinston": 21400,
  "ĠAnime": 27812,
  "Ġ2016": 1584,
  "Ġ120": 7982,
  "ĠAtkinson": 49042,
  "Ġdecidedly": 32343,
  "Ġconstellation": 38712,
  "Ġimpedance": 47472,
  "ĠYOU": 7013,
  "ĠMood": 25723,
  "Sax": 41152,
  "kus": 45614,
  "ghazi": 21775,
  "wk": 43021,
  "ependent": 8682,
  "Ġwhiskey": 29219,
  "Ġbehavi": 6598,
  "Ġinterface": 7071,
  "Ġsewage": 34939,
  "Ġstopped": 5025,
  "ĠOptical": 49593,
  "ĠHBO": 18804,
  "soon": 36194,
  "Ġadv": 1354,
  "Ġtrunk": 21427,
  "Ġopium": 40299,
  "ĠNPC": 15888,
  "ĠGaal": 41308,
  "Ġslams": 45846,
  "That": 2504,
  "ĠUSL": 44072,
  "etric": 19482,
  "olicited": 47607,
  "Ġplatforms": 9554,
  "ĠOklahoma": 10433,
  "Ġlineman": 33157,
  "ĠYard": 30822,
  "ĠFrieza": 48080,
  "ĠSport": 12771,
  "Ġbiomedical": 48730,
  "Gallery": 29352,
  "Ġbowl": 9396,
  "ĠYear": 6280,
  "cko": 37549,
  "Ġbinge": 34735,
  "ĠEmails": 39617,
  "Ġthrob": 48836,
  "ĠDion": 29628,
  "Ġsemic": 39290,
  "transfer": 39437,
  "û": 183,
  "COR": 44879,
  "Ġclipped": 49305,
  "cont": 3642,
  "Ġpenal": 23634,
  "Ġduty": 7077,
  "ĠAmanda": 23040,
  "Ġpublicized": 42732,
  "sts": 6448,
  "ĠInsect": 36652,
  "verse": 4399,
  "ĠClassification": 40984,
  "Ġapproves": 43770,
  "ĠRove": 48351,
  "ĠRei": 33225,
  "Sold": 33873,
  "Ġcapability": 12971,
  "Ġshining": 22751,
  "ingham": 25875,
  "gh": 456,
  "Ġreplied": 8712,
  "Ġarom": 19731,
  "Attempts": 48452,
  "acan": 50195,
  "TV": 6849,
  "479": 31714,
  "ĠBetter": 11625,
  "Ġsurviving": 16997,
  "Ġactivism": 23034,
  "Ġworkforce": 16433,
  "Ġpartitions": 43869,
  "Ġdepos": 12304,
  "lace": 27077,
  "Ġdiff": 814,
  "acqu": 43561,
  "ĠPort": 4347,
  "river": 38291,
  "Ġcomplaints": 9687,
  "Offset": 34519,
  "Ġmedicines": 23533,
  "Ġhyper": 8718,
  "oted": 5191,
  "icious": 6243,
  "ä¸Ģ": 31660,
  "Ġmischief": 38625,
  "Ġstrongh": 26733,
  "Ġrecruitment": 19624,
  "gar": 4563,
  "Ġlaboratories": 35650,
  "ĠTerran": 33486,
  "chains": 38861,
  "Ġbook": 1492,
  "Ġknit": 30495,
  "eka": 38001,
  "ĠNoct": 32809,
  "ogenic": 15147,
  "Ġexaminations": 37305,
  "ĠLind": 9329,
  "Ġdeviations": 47060,
  "Ġparsed": 44267,
  "iction": 2867,
  "ĠZheng": 44583,
  "Ġpsychiatrists": 49218,
  "Unknown": 20035,
  "Ġparanoid": 30285,
  "Ġseparate": 4553,
  "Ġinstitution": 9901,
  "ĠOrc": 19083,
  "ims": 12078,
  "ĠJames": 3700,
  "Ġ": 220,
  "ĠOF": 3963,
  "ĠCook": 8261,
  "ĠHes": 44773,
  "pers": 19276,
  "Ġja": 45091,
  "Ġbiscuits": 50128,
  "Ġranged": 17929,
  "orious": 9982,
  "die": 11979,
  "Ra": 21762,
  "ĠSpa": 40208,
  "Ġinscribed": 45100,
  "Ġtimet": 35732,
  "ĠType": 5994,
  "Ġrespawn": 42929,
  "Ġexcluding": 23494,
  "Ġ([": 29565,
  "ork": 967,
  "267": 25674,
  "Ġfielder": 49743,
  "ĠNikol": 48127,
  "Ġactive": 4075,
  "413": 44103,
  "Ġio": 33245,
  "Ġ166": 26753,
  "auntlets": 39695,
  "Ġexpenditures": 22895,
  "Ġclosely": 7173,
  "ĠAmazon": 6186,
  "Ġparas": 17850,
  "Ġphysic": 22270,
  "ĠÂłĠÂł": 11504,
  "ĠCould": 10347,
  "Ġdeaths": 7040,
  "ably": 1346,
  "aredevil": 38281,
  "ĠSik": 32615,
  "amsung": 30136,
  "Security": 24074,
  "ventures": 10065,
  "Three": 12510,
  "ĠAUTHOR": 44746,
  "ĠHornets": 38602,
  "ĠMoroccan": 49323,
  "¬¼": 45539,
  "endium": 49811,
  "Ġinvol": 1876,
  "battle": 38471,
  "çĦ": 47078,
  "ĠAF": 12341,
  "ording": 1284,
  "Ġdead": 2636,
  "atural": 2660,
  "inner": 5083,
  "Ġvisualization": 32704,
  "Ġlaundering": 27194,
  "Ġgoal": 3061,
  "Ġknees": 14475,
  "Ġproceed": 5120,
  "ad": 324,
  "Ġchallenging": 9389,
  "Ġmadness": 23208,
  "Ġassumed": 9672,
  "ighter": 4799,
  "ĠPU": 24676,
  "amp": 696,
  "Ã©t": 25125,
  "Ġarena": 13478,
  "Ġnicer": 36597,
  "Ġmissile": 10105,
  "Ward": 49021,
  "yn": 2047,
  "Ġenvis": 45633,
  "ollo": 15578,
  "ĠRowe": 44842,
  "ĠGoddess": 9488,
  "Ġsubtly": 37847,
  "Ġheaders": 24697,
  "Ġnavigating": 35210,
  "Ġcubes": 34896,
  "ĠðŁ": 12520,
  "tsy": 34293,
  "current": 14421,
  "Ġcrime": 4065,
  "Ġkg": 14211,
  "encrypted": 43628,
  "ĠFee": 28522,
  "Fran": 38848,
  "room": 3823,
  "Ġtits": 33789,
  "industrial": 31130,
  "278": 25870,
  "Ġreach": 3151,
  "ĠHello": 18435,
  "Ġrecounted": 34187,
  "building": 16894,
  "Ġreversal": 27138,
  "ono": 29941,
  "Ġdownload": 4321,
  "Stan": 32140,
  "ĠQuadro": 48447,
  "Ġcontestants": 37851,
  "ĠWatch": 6305,
  "Ġcontroversies": 36512,
  "Ġrecomp": 48765,
  "ĠRect": 48599,
  "ĠLap": 26944,
  "ĠEug": 20665,
  "Ġfundamentals": 33099,
  "ĠNations": 7973,
  "Bring": 31416,
  "ĠLX": 44988,
  "Ġparties": 4671,
  "Philipp": 49680,
  "ĠAnti": 12297,
  "orge": 3643,
  "Ġpacif": 47617,
  "urious": 16421,
  "powder": 45855,
  "Develop": 19246,
  "ĠHeal": 24923,
  "ĠDACA": 38061,
  "ersive": 24469,
  "bash": 41757,
  "ĠJr": 7504,
  "Ġcomparison": 7208,
  "existent": 32786,
  "Ġobs": 10201,
  "Ġinexpl": 33199,
  "Ġjunior": 13430,
  "Ġrobbing": 47162,
  "Ġnarrowed": 33214,
  "Ġfisheries": 41440,
  "ĠXD": 46537,
  "pes": 12272,
  "Ġskepticism": 25858,
  "Ġomega": 37615,
  "Ġtri": 1333,
  "udget": 29427,
  "stop": 11338,
  "Ġfake": 8390,
  "×Ķ": 38269,
  "ĠEss": 11985,
  "Ġinformed": 7981,
  "Ġhindered": 49186,
  "ĠIll": 5821,
  "ĠIP": 6101,
  "Ġinjure": 42206,
  "Ġapprehens": 31887,
  "Ġreverber": 48134,
  "wx": 49345,
  "Ġranked": 10307,
  "Ġtut": 9732,
  "ĠRetrieved": 43024,
  "ĠCongressional": 15757,
  "Shift": 33377,
  "Ġinflu": 3057,
  "Ġpostings": 44656,
  "Ġamplifier": 33382,
  "cean": 5829,
  "HF": 29567,
  "Ġcomed": 14577,
  "unders": 41116,
  "rils": 41408,
  "Ġmatch": 2872,
  "Ġhunters": 21490,
  "ĺħ": 11805,
  "Ġtourists": 15930,
  "ercise": 23697,
  "Ġvehicles": 5672,
  "Ġfully": 3938,
  "YS": 16309,
  "Ġdiscovers": 27472,
  "Ġerotic": 32739,
  "ĠJuan": 16852,
  "rak": 17716,
  "Students": 28239,
  "icative": 43058,
  "Ġhoard": 46960,
  "strous": 22501,
  "Ġpoetic": 38273,
  "Ġnob": 31801,
  "ZX": 40692,
  "Asked": 18932,
  "culated": 49262,
  "ressed": 2790,
  "ĠJohnson": 5030,
  "ĠMadden": 38920,
  "local": 12001,
  "Ġconsequently": 25578,
  "Ġsurgeries": 33624,
  "Ġassessment": 8922,
  "ciplinary": 29386,
  "Fun": 24629,
  "ĠConditions": 27617,
  "ievers": 30296,
  "cf": 12993,
  "Ġcontemporaries": 46028,
  "Upload": 41592,
  "Ġviol": 1935,
  "ĠAlic": 34745,
  "Ġcongratulated": 47630,
  "nic": 6988,
  "ur": 333,
  "Ġrolls": 14088,
  "ankind": 28066,
  "ilar": 1794,
  "Ġfulf": 8456,
  "word": 4775,
  "ĠGithub": 38994,
  "ĠGÃ¶": 50182,
  "Netflix": 42826,
  "Ġretreating": 46163,
  "ĠReborn": 37612,
  "Ġmoons": 31093,
  "Ġtransmit": 21937,
  "Ġamusing": 28297,
  "889": 39121,
  "Ġdoll": 3654,
  "Ġcooperate": 21270,
  "Ġç": 13328,
  "Ġdazzling": 41535,
  "asonry": 38950,
  "standing": 5646,
  "ĠStarbucks": 24527,
  "ĠFlames": 25814,
  "Ġcontributed": 8639,
  "Ġ153": 24652,
  "anical": 36684,
  "Enjoy": 27467,
  "Ġcol": 951,
  "helle": 34454,
  "Ġ6000": 39064,
  "Task": 25714,
  "Ġshop": 6128,
  "Ġbreaches": 31523,
  "Ġ237": 34385,
  "Ġfood": 2057,
  "ãĤ©": 37662,
  "priced": 30883,
  "Film": 39750,
  "Ġgrizz": 46307,
  "port": 634,
  "rider": 49449,
  "Ġharming": 37871,
  "Ġpresents": 10969,
  "Ġgraphics": 9382,
  "Ġjumper": 31118,
  "460": 34716,
  "Ġdiagram": 16362,
  "ĠSpart": 20711,
  "ittal": 39979,
  "ĠMultiplayer": 39759,
  "ĠBris": 25537,
  "Ġconsensual": 39685,
  "Ġconcludes": 18978,
  "azer": 19178,
  "ĠBoyd": 29897,
  "Images": 29398,
  "ĠSteal": 47242,
  "Credit": 23690,
  "Ġkeyword": 21179,
  "wyn": 27612,
  "bows": 25435,
  "Ġbraces": 47241,
  "Ġrecon": 8195,
  "ĠGar": 7164,
  "Ġscattering": 45765,
  "IFA": 19071,
  "Ġexplosions": 23171,
  "til": 47163,
  "Ġranging": 12897,
  "olt": 5978,
  "Inter": 9492,
  "Ġ1906": 40538,
  "Ġthwarted": 44200,
  "Ġprimer": 33270,
  "Ġ....": 19424,
  "rots": 24744,
  "ĠJM": 47726,
  "Roaming": 27352,
  "Figure": 11337,
  "ß": 155,
  "Ġdiamond": 15291,
  "Lat": 24220,
  "Ġpilots": 14982,
  "Ġcouncill": 25618,
  "grown": 22377,
  "ĠTroll": 28037,
  "fund": 10990,
  "ĠSchultz": 26530,
  "endon": 43153,
  "weet": 7277,
  "Ġlit": 6578,
  "ĠFort": 6401,
  "ĠRouge": 27478,
  "Ġteachers": 7799,
  "Ġsquadron": 40733,
  "\":-": 48219,
  "Applications": 41995,
  "adi": 9189,
  "ĠChicago": 4842,
  "Ġdeliberately": 14593,
  "Ġnegotiations": 9825,
  "iversary": 9023,
  "ĠSweet": 15335,
  "shirt": 15600,
  "ĠAdrian": 21462,
  "ĠIntroduced": 16745,
  "ĠChick": 31939,
  "Ġbriefings": 44091,
  "ados": 22484,
  "Date": 10430,
  "Ġcharming": 23332,
  "kees": 16683,
  "ĠKarin": 38802,
  "ĠTyr": 14319,
  "Details": 24259,
  "ĠAtari": 35884,
  "government": 14480,
  "ivalry": 47310,
  "Ġlayout": 12461,
  "tted": 28734,
  "Ġ:": 1058,
  "Ġluckily": 45120,
  "Ġmembranes": 43447,
  "Ġoccurs": 8833,
  "Ġbacteria": 11492,
  "Ġfeatures": 3033,
  "Ġultimate": 8713,
  "Ġinfant": 11212,
  "Ġcheers": 34550,
  "Ġwitch": 16365,
  "Ġstockp": 29534,
  "Ġnonetheless": 19018,
  "drive": 19472,
  "Ġdearly": 46379,
  "ĠUbisoft": 34559,
  "VIS": 29817,
  "angular": 21413,
  "Ġgoat": 26917,
  "ĠKon": 17431,
  "Ġng": 23370,
  "venient": 48109,
  "Ġplants": 6134,
  "615": 47007,
  "Lady": 38887,
  "ĠOl": 6544,
  "Ġannouncer": 49032,
  "Compat": 40073,
  "rosis": 37172,
  "iltr": 19438,
  "Ġcenter": 3641,
  "Ġmentioning": 20862,
  "Ġdigestion": 44639,
  "iliate": 49826,
  "cies": 3171,
  "MAS": 31180,
  "gaard": 36232,
  "ĠAlger": 26832,
  "Ġboldly": 42831,
  "¢": 95,
  "Sales": 44490,
  "Ġ109": 16003,
  "Ġoccupy": 22265,
  "ushi": 17731,
  "Ġwillingly": 30981,
  "Ġbrewer": 47695,
  "rey": 4364,
  "Ġbombardment": 44022,
  "022": 44087,
  "070": 43509,
  "Ġhall": 6899,
  "Fuel": 42663,
  "ĠTreat": 11217,
  "opathy": 27189,
  "Ġlimbs": 21755,
  "Due": 22229,
  "Ġsurveillance": 8452,
  "Ġdraped": 38425,
  "ĠdÃ©": 39073,
  "ĠDanny": 15105,
  "ĠAfghan": 6539,
  "Ġwitches": 34773,
  "ĠWer": 27648,
  "alties": 10355,
  "ĠPip": 25149,
  "eks": 2573,
  "ĠCostco": 46889,
  "Ġrooms": 9519,
  "ĠHave": 8192,
  "OUS": 20958,
  "achusetts": 9770,
  "Optional": 30719,
  "ĠEst": 10062,
  "Ġcarcin": 28164,
  "Featured": 37948,
  "ĠJean": 11320,
  "urtle": 17964,
  "Ġbreakthrough": 19304,
  "Ġpulls": 16194,
  "à¹": 31479,
  "Ġdocks": 45906,
  "ĠVK": 45917,
  "ĠScientists": 23782,
  "Ġ1889": 49545,
  "Ġenthusiastically": 42045,
  "ĠSierra": 17559,
  "ĠRepublicans": 4734,
  "Ġsalty": 36021,
  "NP": 22182,
  "Ġorganizers": 19043,
  "ĠAfter": 2293,
  "actually": 37739,
  "ek": 988,
  "ĠDLC": 18068,
  "ĠGeral": 49662,
  "Enlarge": 30952,
  "Ġnonpartisan": 42157,
  "Ġsoaked": 33657,
  "assembly": 41873,
  "ĠUnicorn": 39481,
  "ĠSheikh": 30843,
  "ĠAct": 2191,
  "itor": 2072,
  "phrase": 34675,
  "Ġinstallations": 26162,
  "ĠAkira": 46910,
  "ĠSize": 12849,
  "lys": 27385,
  "Ġdetainee": 49436,
  "Hero": 30411,
  "Ġdetermining": 13213,
  "ĠFit": 25048,
  "Host": 17932,
  "Ġterminology": 29191,
  "err": 8056,
  "ĠÎ¼g": 44415,
  "Ġrevoke": 39041,
  "Ġtucked": 29779,
  "Ġfantas": 23857,
  "ĠCitadel": 32266,
  "Ġplaza": 42433,
  "range": 9521,
  "Ġcrust": 20048,
  "Ġspraying": 40170,
  "amples": 12629,
  "Ġrattled": 48588,
  "ĠSeriously": 27777,
  "\")": 4943,
  "Inside": 24441,
  "Ġslate": 27589,
  "Ġmerge": 20121,
  "Ġcock": 7540,
  "Ġredundant": 30806,
  "ĠPryor": 45350,
  "Ġball": 2613,
  "Ġphenomen": 7581,
  "ographies": 41480,
  "Ġreinforces": 41125,
  "Besides": 23937,
  "Unique": 40257,
  "ordinate": 45480,
  "Ġshallow": 19337,
  "ĠPyro": 44954,
  "politics": 34127,
  "Ġmiserable": 22444,
  "DIV": 33569,
  "ĠMobil": 45951,
  "Ġmedian": 14288,
  "ado": 4533,
  "Ġstrategically": 34235,
  "ĠAtom": 33102,
  "ĠThur": 36975,
  "ĠUI": 12454,
  "Ġdefending": 11749,
  "Ġtoll": 13592,
  "ĠPetition": 43723,
  "ĠNico": 39360,
  "awed": 36825,
  "Ġreeling": 45341,
  "atic": 1512,
  "rop": 1773,
  "Ġjudgement": 23071,
  "Ġvirtually": 9826,
  "jah": 31558,
  "ĠKardash": 42239,
  "Ġoppress": 35035,
  "ĠAl": 978,
  "select": 19738,
  "Ġshots": 6934,
  "ĠMethods": 25458,
  "animal": 41607,
  "Ġredund": 22916,
  "starting": 38690,
  "nis": 21361,
  "atis": 37749,
  "nd": 358,
  "uty": 3935,
  "ĠChance": 11809,
  "Ġcomplication": 45185,
  "identally": 23961,
  "Ġhumanities": 47824,
  "Ġgloss": 21194,
  "73": 4790,
  "peror": 8723,
  "ĠSasha": 32151,
  "ĠTorn": 31940,
  "Ġend": 886,
  "Ġattitude": 9408,
  "ĠlargeDownload": 42728,
  "ĠValues": 27068,
  "ĠKarachi": 46154,
  "ĠPanther": 30364,
  "ĠLove": 5896,
  "ĠGraves": 37729,
  "ĠTA": 21664,
  "Ġdemonstrates": 15687,
  "ĠLomb": 28503,
  "revolution": 32243,
  "exclusive": 41195,
  "pex": 24900,
  "ĠTurner": 15406,
  "NM": 32755,
  "Ġauxiliary": 37419,
  "Ġrequ": 1038,
  "Ġserious": 2726,
  "ĠNurs": 28916,
  "Ġcouncils": 27174,
  "Ġvolleyball": 50196,
  "ĠTactical": 26984,
  "ero": 3529,
  "rals": 30691,
  "WR": 18564,
  "%).": 18823,
  "Ġlands": 8604,
  "default": 12286,
  "ĠHaving": 11136,
  "Ġguaranteeing": 50156,
  "eous": 15303,
  "kun": 28374,
  "Ġheated": 16968,
  "ĠIGF": 46757,
  "ĠU": 471,
  "Ġsnug": 47032,
  "516": 47493,
  "wm": 26377,
  "Ġtitles": 8714,
  "Ġnorms": 19444,
  "ĠFernando": 31063,
  "zilla": 16496,
  "Ġcursing": 49766,
  "Ġpoverty": 8098,
  "ender": 2194,
  "Ġgalleries": 38462,
  "ĠSchedule": 19281,
  "Ġhatched": 49353,
  "Ġasteroid": 27460,
  "Ġpulses": 37783,
  "ĠDX": 19393,
  "around": 14145,
  "Ġexquisite": 40123,
  "functional": 45124,
  "Mad": 18454,
  "Ġpar": 1582,
  "goers": 31006,
  "ĠCrossing": 31910,
  "Ġcassette": 42812,
  "Ġdebating": 31174,
  "Ġsafely": 11512,
  "Ġ204": 26956,
  "itialized": 13562,
  "shots": 20910,
  "Ġpoets": 39939,
  "Ġfranchises": 28088,
  "Â±": 22519,
  "Ġcurled": 41108,
  "Ŀ": 251,
  "387": 32220,
  "Ġcorrosion": 41677,
  "Ġclause": 13444,
  "leasing": 48764,
  "Ġspaceship": 40663,
  "Ġnurse": 15849,
  "Ġfins": 42080,
  "mitt": 20124,
  "ĠHuck": 33703,
  "ĠRi": 30385,
  "ipeg": 21700,
  "ĠStock": 10500,
  "ĠETH": 35920,
  "ĠGlobal": 8060,
  "ĠZot": 22621,
  "ĠEnterprise": 14973,
  "Ġdigging": 18894,
  "ĠSymbol": 38357,
  "Ġstraw": 14787,
  "ĠMBA": 45517,
  "jon": 46286,
  "Ġ1990": 6303,
  "ĠCoin": 16312,
  "amate": 36754,
  "oused": 29997,
  "Ġstuffing": 43672,
  "ĠSTORY": 46427,
  "Ġswaps": 43997,
  "Ġbars": 9210,
  "Ġsets": 5621,
  "uded": 19289,
  "ĠDating": 43528,
  "Ġresid": 15384,
  "ĠFile": 9220,
  "ĠBrom": 31455,
  "Controller": 22130,
  "ĠBaron": 21770,
  "ãĤ¹ãĥĪ": 43302,
  "Ġprotested": 27278,
  "ĠBast": 17520,
  "ĠPoss": 29265,
  "ĠMulcair": 47402,
  "Ġlifts": 27103,
  "ĠOlder": 35527,
  "GO": 11230,
  "Ġdocumentaries": 43014,
  "Mom": 29252,
  "ĠCW": 24006,
  "ĠPark": 3250,
  "Ġphilosophers": 24858,
  "kaya": 35372,
  "Ġpragmatic": 33119,
  "izers": 11341,
  "Taking": 26556,
  "Desk": 42523,
  "astery": 29310,
  "orians": 45825,
  "Ġpneum": 29631,
  "ĠJournalists": 45644,
  "ĠPlain": 28847,
  "Sch": 14874,
  "ĠReck": 42331,
  "ji": 7285,
  "Ġdisadvant": 14560,
  "air": 958,
  "bery": 13001,
  "ĠArchive": 20816,
  "Ġti": 46668,
  "Ġshoot": 2686,
  "Â¯Â¯Â¯Â¯Â¯Â¯Â¯Â¯Â¯Â¯Â¯Â¯Â¯Â¯Â¯Â¯": 27006,
  "ĠPROC": 41755,
  "volume": 29048,
  "Ġego": 19225,
  "\"}],\"": 42785,
  "Ġtying": 28379,
  "Ġaccelerate": 22636,
  "Ġdangers": 16169,
  "Ġignor": 11477,
  "Ġconvinced": 9431,
  "Ġlatch": 43140,
  "Ġshutter": 31168,
  "Dar": 32708,
  "]-": 45297,
  "iatures": 42711,
  "Ten": 24893,
  "Bank": 28650,
  "bul": 15065,
  "Ġunderestimated": 36190,
  "Ġreviewed": 11765,
  "Ġ9": 860,
  "ĠTheNitrome": 42089,
  "Ġmost": 749,
  "ĠCub": 7070,
  "Ġmistress": 37769,
  "Ġmoney": 1637,
  "Ġbasket": 7988,
  "ffield": 31374,
  "Ġvault": 22563,
  "ipop": 42800,
  "culus": 17576,
  "54": 4051,
  "Sham": 43478,
  "Ġreign": 13580,
  "Ġremoving": 10829,
  "Ġsulfur": 37402,
  "ĠNorthern": 8342,
  "Ġbiological": 10685,
  "atown": 41079,
  "Ġbios": 37140,
  "ĠRyan": 6047,
  "Ġdoctor": 6253,
  "Ġpedd": 36145,
  "Ġmathematic": 33161,
  "ĠCry": 8152,
  "Ġshield": 7614,
  "ĠUttar": 44744,
  "Ġsplitting": 26021,
  "ynasty": 19488,
  "unta": 44424,
  "ĠÂ«": 21110,
  "Ġ1865": 47801,
  "aur": 2899,
  "Ġmanipulate": 18510,
  "Ġove": 31471,
  "ĠCit": 15792,
  "ustom": 1824,
  "Java": 29584,
  "Ġpants": 12581,
  "exp": 11201,
  "Ġdetectable": 44187,
  "ĠReform": 17893,
  "arp": 5117,
  "ĠNum": 31835,
  "igent": 47096,
  "Stop": 19485,
  "Ġinmates": 16831,
  "Ġfox": 21831,
  "susp": 40409,
  "Ġapex": 40167,
  "Ġspacing": 31050,
  "Ġoverall": 4045,
  "ĠCY": 30440,
  "ĠBunker": 44761,
  "Ġ429": 42313,
  "ĠJD": 28591,
  "Ġtrue": 2081,
  "ĠHoms": 47778,
  "Ġonwards": 31719,
  "Ġdecide": 5409,
  "ĠHath": 36556,
  "Ġhypothesis": 14078,
  "producing": 36866,
  "etrical": 34546,
  "Ġvents": 42777,
  "send": 21280,
  "Ġsomebody": 8276,
  "Ġcatast": 14911,
  "Ġtrumpet": 40334,
  "ĠRacial": 42318,
  "opoly": 35894,
  "erm": 7780,
  "ĠKenn": 7158,
  "toc": 40301,
  "Ġtechnological": 14614,
  "icy": 4611,
  "part": 3911,
  "lated": 17249,
  "Ġcloser": 5699,
  "rolling": 18886,
  "ĠStar": 2907,
  "ĠAtmosp": 33276,
  "ĠAnders": 25519,
  "Ġturning": 6225,
  "ploy": 1420,
  "Ġperfectly": 7138,
  "Ġcaramel": 32913,
  "ĠHacker": 34399,
  "umped": 27073,
  "ĠAutism": 39875,
  "tiny": 44152,
  "Ġherein": 24028,
  "esters": 8586,
  "æµ": 38184,
  "isons": 9886,
  "Ġexpression": 5408,
  "agram": 6713,
  "Ġagreeable": 49534,
  "Ġvul": 24477,
  "Ġcage": 17186,
  "ĠTHC": 25728,
  "Ġmaintained": 9456,
  "ĠOd": 10529,
  "Ġmigrant": 23088,
  "ĠRestrict": 37163,
  "roads": 21372,
  "ĠTir": 39847,
  "Ġflaw": 11804,
  "Ke": 8896,
  "Ġsounding": 22655,
  "ĠItaly": 8031,
  "Ġmonog": 43173,
  "Ġbehaves": 39341,
  "Command": 21575,
  "Ġentrenched": 32472,
  "Thankfully": 48387,
  "Ġterror": 3246,
  "Ġheaviest": 45568,
  "Ġaiding": 37221,
  "Ġvibration": 30999,
  "ĠQuiet": 37355,
  "Ġvon": 18042,
  "Ġdiameter": 14753,
  "ĠJournalism": 37406,
  "Ġnor": 4249,
  "Ġindo": 23046,
  "Ġmemories": 9846,
  "ĠRosen": 15564,
  "ested": 7287,
  "Ġsits": 10718,
  "ĠRain": 10301,
  "Ġadm": 6178,
  "ĠWol": 27094,
  "Ġalike": 12936,
  "ĠKhalid": 44544,
  "ĠEG": 41513,
  "Ġclue": 18437,
  "Ġdrugs": 5010,
  "told": 44040,
  "Ġdescending": 31491,
  "dB": 36077,
  "Ġuneasy": 34644,
  "Ġrelocate": 36867,
  "Ġtelling": 5149,
  "ĠMercedes": 21279,
  "ĠDexter": 26284,
  ">>>>": 16471,
  "Ġvis": 1490,
  "Ġtotalitarian": 34524,
  "Ġuptick": 46347,
  "ĠProbably": 18578,
  "Ġfolders": 24512,
  "Ġswore": 37964,
  "ĠColon": 14049,
  "ebted": 35895,
  "Ġprime": 6994,
  "Ġprogrammed": 27402,
  "Ġaerospace": 40439,
  "Ġpenny": 26369,
  "Ġsediment": 33408,
  "erving": 14344,
  "Ġavg": 42781,
  "ĠTeachers": 32426,
  "ĠCustoms": 23888,
  "ovember": 3239,
  "Ġcrumble": 49478,
  "ĠRecomm": 19237,
  "Ġintimidate": 34903,
  "Ġcran": 41286,
  "Ġtarn": 40851,
  "ĠLead": 20116,
  "Ġintentions": 14953,
  "ĠAnimated": 36492,
  "Ġspilled": 31896,
  "gif": 27908,
  "Ġabused": 15519,
  "ĠHad": 11161,
  "Ġcompliant": 31332,
  "Ġspray": 11662,
  "Ġgenres": 27962,
  "Ġantic": 47792,
  "641": 42759,
  "Ġconsiderations": 18506,
  "ĠMSI": 30781,
  "Ġï¿½": 20543,
  "ĠãĤµãĥ¼ãĥĨãĤ£": 45544,
  "ĠGoes": 31914,
  "Ġcortisol": 41547,
  "Ġ318": 39320,
  "Ġgovernor": 8153,
  "More": 5167,
  "Ġdressed": 12049,
  "å§«": 40235,
  "ĠMakes": 27433,
  "Ġuses": 3544,
  "OT": 2394,
  "ĠEight": 18087,
  "ĠNP": 28498,
  "bol": 28984,
  "RECT": 23988,
  "Ġsprite": 33810,
  "Ġprosecuted": 23086,
  "ĠSparks": 48117,
  "Ġuntold": 47872,
  "Ġdoubling": 26862,
  "Below": 21106,
  "eman": 8463,
  "Ġpoured": 19036,
  "ĠRefresh": 22539,
  "ĠMEM": 35153,
  "Ġmonastery": 38139,
  "Group": 13247,
  "Ġreturning": 8024,
  "Questions": 35741,
  "ĠMarco": 16556,
  "ĠInfinite": 22380,
  "hazard": 37598,
  "Ġfle": 5104,
  "iet": 1155,
  "Ġemergencies": 36047,
  "Ġgreeting": 31933,
  "Ġlandscapes": 32964,
  "Ġparanormal": 47525,
  "Ġhaul": 25647,
  "verty": 8077,
  "ĠAliens": 39301,
  "Ġfever": 17372,
  "Ġreg": 842,
  "ĠWindow": 26580,
  "Ġlaund": 22138,
  "orative": 36478,
  "ĠTact": 15324,
  "Ġcapsule": 27855,
  "ĠDiagn": 31549,
  "ĠSerial": 23283,
  "Ġbiologists": 43149,
  "Ġ422": 46588,
  "ossal": 33582,
  "Ġassassins": 44454,
  "ĠSchr": 49871,
  "Ġforms": 5107,
  "ĠGiven": 11259,
  "Ġinhibited": 48582,
  "Ġagony": 35358,
  "Ġ375": 29414,
  "Ġburgeoning": 38935,
  "2015": 4626,
  "ately": 1286,
  "Ġevacuate": 36316,
  "Ġtravelled": 21650,
  "31": 3132,
  "Ġarte": 46252,
  "ĠUtility": 34030,
  "oche": 30848,
  "Ġhref": 13291,
  "Ġgaze": 17841,
  "Built": 39582,
  "ĠTob": 13695,
  "ical": 605,
  "Ġcontextual": 38356,
  "Ġpointers": 32007,
  "Ġremarked": 24998,
  "Ġreassured": 48171,
  "Ġãĥ": 14524,
  "podcast": 46032,
  "reated": 15978,
  "ĠExperience": 16386,
  "Ġengine": 3113,
  "ĠTRUMP": 42953,
  "ework": 6433,
  "Located": 43525,
  "Ġaren": 3588,
  "ĠSlate": 30621,
  "ĠFreak": 45328,
  "Ġ202": 22131,
  "Ġsocieties": 14515,
  "nothing": 22366,
  "ĠMana": 17493,
  "iovascular": 19381,
  "Ġgeographic": 22987,
  "ĠMcKay": 37946,
  "Ġboss": 6478,
  "tek": 35424,
  "ĠChill": 38290,
  "imal": 4402,
  "Ġspecies": 4693,
  "TIME": 34694,
  "Ġaddictive": 28389,
  "Ġuniqueness": 49650,
  "Ġloosely": 28845,
  "Ġsummarize": 35743,
  "Ġjudge": 5052,
  "Ç": 131,
  "ĠWarriors": 12090,
  "ĠLoch": 45264,
  "ĠTradable": 11974,
  "GREEN": 43016,
  "Ġgou": 50162,
  "illary": 15856,
  "ĠRW": 33212,
  "Ġcrop": 13833,
  "ĠNeon": 27093,
  "ĠRik": 50067,
  "Ġmany": 867,
  "Ġsidx": 36929,
  "ĠTTC": 42662,
  "isen": 13254,
  "-[": 49146,
  "Ġplagued": 27909,
  "Ġstereotype": 31240,
  "Ġgamb": 45756,
  "ĠSE": 7946,
  "Ġwinger": 31389,
  "asking": 30463,
  "Ġminimalist": 44693,
  "kins": 5331,
  "Fa": 50110,
  "Mon": 9069,
  "Ġsadness": 25303,
  "Blake": 37849,
  "ĠKeeper": 26335,
  "feld": 16265,
  "ĠVietnam": 10836,
  "ĠMany": 4650,
  "Ġneighbours": 23788,
  "uma": 7487,
  "620": 38850,
  "ĠMur": 5921,
  "ĠMug": 25841,
  "Ġ1953": 24217,
  "ĠParadox": 37983,
  "/+": 28404,
  "ĠKILL": 45257,
  "Ġinstr": 6480,
  "Ġtissue": 10712,
  "Ġincomplete": 17503,
  "Ġgarn": 36167,
  "Ġslapping": 48966,
  "Ġevaluated": 16726,
  "ĠRebecca": 23489,
  "Charge": 50044,
  "////////": 16150,
  "hello": 31373,
  "ocamp": 26047,
  "Ġgeo": 40087,
  "Ġchambers": 23204,
  "cmd": 28758,
  "Ġwould": 561,
  "kish": 31501,
  "Ġspace": 2272,
  "Ġteen": 6036,
  "Ġobjection": 19630,
  "Ġunfolding": 34502,
  "Ġeating": 6600,
  "ĠTiffany": 40928,
  "Ġforegoing": 41660,
  "Ġlease": 15278,
  "Ġhappiness": 12157,
  "Ġtranslated": 14251,
  "ĠKas": 15035,
  "Ġremembering": 24865,
  "ĠBaseball": 17362,
  "ĠRepeat": 30021,
  "Ġbureaucrats": 34025,
  "umed": 18940,
  "Authorities": 28705,
  "ounter": 6828,
  "ĠTasmania": 46896,
  "Eng": 7936,
  "Ġbreeds": 29580,
  ".</": 25970,
  "ĠSc": 1446,
  "ĠBride": 29840,
  "ĠAmbrose": 45263,
  "ĠKorean": 6983,
  "Ġ271": 33797,
  "Ġdonations": 10976,
  "ĠZin": 36971,
  "inski": 21141,
  "Ġconsume": 15000,
  "ĠDeep": 10766,
  "Ġmsg": 31456,
  "angled": 22393,
  "Ġlivest": 20532,
  "ĠAnge": 49759,
  "Ġencourages": 18656,
  "Ġcostumes": 24138,
  "Ġhabitat": 20018,
  "Ġsanction": 18830,
  "ĠDecay": 39087,
  "lict": 13758,
  "Band": 31407,
  "Ġaccomplishments": 26516,
  "Berry": 25215,
  "ĠSilver": 7698,
  "Ġoverflow": 30343,
  "ĠSatanic": 41518,
  "Ġunprecedented": 13029,
  "Joy": 41338,
  "ĠOnt": 9463,
  "Ġtone": 8216,
  "resolution": 29268,
  "Ġounces": 24405,
  "Ġrefere": 6773,
  "Ġsenate": 34548,
  "Ġscrolling": 28659,
  "Ġballistic": 22681,
  "administ": 39081,
  "touch": 29332,
  "ĠRecorded": 50096,
  "umbledore": 25549,
  "ĠRoads": 40065,
  "ĠFailed": 22738,
  "245": 22995,
  "Ġscene": 3715,
  "Ġprizes": 21740,
  "Ġbill": 2855,
  "Ġ436": 50038,
  "ĠEuro": 1898,
  "Ġcrib": 48083,
  "ĠBanks": 19566,
  "Ġliabilities": 25333,
  "Ġscrap": 15881,
  "ĠMandela": 40233,
  "technical": 47944,
  "Ġbracket": 19096,
  "ĠWade": 19136,
  "ĠCroatian": 48853,
  "Ġremembers": 18140,
  "ĠTIM": 31742,
  "ĠHades": 36857,
  "aple": 24052,
  "Step": 8600,
  "ĠATF": 39215,
  "ĠVER": 33310,
  "ĠMans": 18580,
  "Ġrainy": 37259,
  "Ġripping": 34759,
  "ATA": 13563,
  "oker": 11020,
  "ĠChan": 18704,
  "gment": 5154,
  "riminal": 22157,
  "threat": 19971,
  "boro": 21513,
  "Ġlivelihood": 30489,
  "Ġmountain": 8598,
  "Ġcompiled": 14102,
  "Even": 6104,
  "ĠPerkins": 29618,
  "ĠShip": 16656,
  "ĠiPads": 48741,
  "ĠOC": 24775,
  "porting": 26527,
  "Tea": 49770,
  "ĠClosing": 47055,
  "ĠGon": 35371,
  "ĠKushner": 24743,
  "Ġmicrobial": 36603,
  "+(": 33747,
  "ail": 603,
  "Ġdeclined": 7392,
  "Ġchances": 8395,
  "Ġshaped": 14292,
  "inside": 48787,
  "ORN": 30649,
  "rand": 25192,
  "ĠFut": 24002,
  "anmar": 21708,
  "adle": 35166,
  "Ġofficials": 2828,
  "ĠInvaders": 41671,
  "Ġslide": 10649,
  "osal": 40725,
  "Ġconsultants": 29597,
  "ĠMes": 14937,
  "Ġstamped": 28305,
  "Ġfeature": 3895,
  "Ġtransact": 48878,
  "ĠShould": 10358,
  "CW": 43538,
  "Ġaffluent": 34552,
  "ĠJulian": 18322,
  "Ġestimating": 39539,
  "Ġcurve": 12133,
  "Ġplat": 40315,
  "ociation": 41003,
  "ĠMiche": 27407,
  "ex": 1069,
  "Ġroasted": 30490,
  "grain": 48270,
  "ĠFreem": 39587,
  "ĠProvidence": 28319,
  "></": 12240,
  "Ġconversations": 10275,
  "illac": 40607,
  "ids": 2340,
  "432": 45331,
  "eyed": 18834,
  "ĠMuhammad": 15870,
  "ĠXiao": 28249,
  "ĠPH": 9370,
  "anus": 41141,
  "ĠBie": 31700,
  "ATIVE": 37045,
  "hesis": 8497,
  "ĠSum": 5060,
  "ĠGenocide": 48721,
  "native": 30191,
  "emis": 30561,
  "164": 23237,
  "Ġjaw": 19218,
  "ĠLayout": 47639,
  "Ġcoordinates": 22715,
  "ĠWireless": 24365,
  "printf": 37435,
  "Ġrad": 2511,
  "ĠLans": 34176,
  "rarily": 39000,
  "ĠShar": 15465,
  "Ġabuses": 19544,
  "Ġvideo": 2008,
  "Democrats": 29969,
  "issy": 36419,
  "ewater": 21422,
  "Ġ420": 28262,
  "Ġpsychological": 10590,
  "innie": 49708,
  "amps": 9430,
  "ĠSev": 37918,
  "ĠDrivers": 36577,
  "ĠInsp": 25300,
  "antz": 46269,
  "ĠGovernment": 5070,
  "Ġnode": 10139,
  "ĠMigration": 36991,
  "Ġfortunately": 39955,
  "ĠVisa": 27645,
  "Ġpresenter": 39597,
  "Ġskilled": 14297,
  "Apple": 16108,
  "Ġs": 264,
  "Ġph": 872,
  "breaker": 25766,
  "ĠAlas": 45315,
  "as": 292,
  "750": 15426,
  "Ġstartups": 21685,
  "ĠKH": 40249,
  "Ġ297": 41103,
  "Ġpraises": 40221,
  "ĠMast": 30868,
  "Ġparole": 25450,
  "ĠTEST": 43001,
  "ority": 29134,
  "ĠRose": 8049,
  "ĠComplex": 19157,
  "ĠCaval": 21753,
  "ĠEstimates": 47052,
  "abin": 6014,
  "Ġbank": 3331,
  "204": 18638,
  "Ġknitting": 41577,
  "strong": 11576,
  "auth": 18439,
  "OSED": 48751,
  "ĠAI": 9552,
  "ĠIndia": 3794,
  "Ġsuperhuman": 47262,
  "Ġakin": 22107,
  "Ġ[-": 25915,
  "Rober": 15924,
  "Ġmonarch": 26464,
  "aged": 1886,
  "Ġcombating": 40975,
  "ĠHydra": 31613,
  "ĠAdults": 35154,
  "among": 35131,
  "ĠAvailable": 14898,
  "Ġengineered": 23371,
  "ý": 185,
  "Ġ419": 48475,
  "Ġdefinition": 6770,
  "penter": 26419,
  "Ġhover": 20599,
  "Ġexpressly": 27462,
  "Ġscanned": 28660,
  "Ġ42": 5433,
  "Ġmesmer": 46814,
  "ĠIdol": 34392,
  "ĠHeather": 24253,
  "ĠIce": 6663,
  "Ġelbow": 22662,
  "istor": 32380,
  "ĠBangalore": 46216,
  "Ġvinyl": 23275,
  "tools": 31391,
  "Ġie": 37941,
  "Ġadd": 751,
  "Ġsubmissions": 22129,
  "ĠCastle": 11312,
  "Ġtensions": 15733,
  "activity": 21797,
  "ĠCater": 40742,
  "ĠDiss": 35305,
  "Jamie": 48337,
  "ĨĴ": 10253,
  "ittance": 47912,
  "ĠMaria": 14200,
  "phasis": 28432,
  "Ġupholding": 46004,
  "Luckily": 42332,
  "ĠMissions": 46006,
  "Ġresponds": 20067,
  "Ġexcept": 2845,
  "igraph": 45920,
  "LT": 27734,
  "Ġdumps": 45514,
  "ĠHTTPS": 38288,
  "activation": 48545,
  "legal": 18011,
  "pite": 2595,
  "Ġinconsist": 26104,
  "Ġdisable": 15560,
  "swick": 30961,
  "Ġshifts": 15381,
  "pired": 6474,
  "Ġouts": 12198,
  "taboola": 10658,
  "ĠDistribution": 27484,
  "engers": 9302,
  "Ġsusceptibility": 43304,
  "ĠElsa": 19226,
  "trap": 46670,
  "ĠZed": 46159,
  "Ġrefreshed": 47193,
  "ophile": 37161,
  "Ġbol": 11572,
  "ggies": 33049,
  "Ġswoop": 38527,
  "ust": 436,
  "Ġplurality": 36325,
  "ĠKarma": 32648,
  "ĠAbbey": 33128,
  "Br": 9414,
  "Ġrenov": 24317,
  "Ġaffiliates": 29116,
  "Ġunavoidable": 37645,
  "Ġgerm": 41171,
  "osure": 4567,
  "Ġrecalling": 38203,
  "Ġplugin": 13877,
  "Ġstable": 8245,
  "Ġexpedition": 22817,
  "ĠMajor": 8386,
  "Ġenvironmentalists": 40586,
  "Ġadvantages": 13391,
  "aturated": 30192,
  "ĠNot": 1892,
  "ĠResident": 22373,
  "Ġartifacts": 20316,
  "Ġdoesn": 1595,
  "Ġp": 279,
  "Ġpropose": 18077,
  "Ġcrawl": 27318,
  "Ġblindly": 39615,
  "Å": 129,
  "ĠRegular": 23603,
  "Ġboot": 6297,
  "Ġattracting": 25142,
  "bow": 8176,
  "Ġmouth": 5422,
  "ĠEAR": 31834,
  "Ġlegalization": 23050,
  "In": 818,
  "Ġmirrors": 22353,
  "Ġvertex": 37423,
  "Remote": 36510,
  "Ġasset": 11171,
  "eker": 28233,
  "Ġidentification": 11795,
  "Ġphenotype": 47174,
  "fred": 39193,
  "ĠMatters": 30587,
  "Stay": 25681,
  "Effect": 18610,
  "ĠWing": 13405,
  "nexpected": 42072,
  "ĠAgility": 43406,
  "ĠTermin": 15527,
  "live": 12583,
  "Ġsignage": 46924,
  "Ġbattles": 10181,
  "Ġpeoples": 14366,
  "Ġresponses": 9109,
  "Ġwarned": 7728,
  "ĠSheldon": 34536,
  "NAME": 20608,
  "ĠGeneration": 16588,
  "Ġtariff": 36427,
  "Ġexistential": 28954,
  "communication": 32560,
  "school": 14347,
  "umerable": 30831,
  "ĠLabs": 23500,
  "connected": 15236,
  "ĠZhou": 32222,
  "Hol": 28115,
  "Ġindent": 33793,
  "Hy": 21217,
  "ĠNaval": 20818,
  "Ġwhales": 24635,
  "dict": 11600,
  "ctx": 49464,
  "Ġwarm": 5814,
  "bek": 47083,
  "Ġtroop": 31874,
  "Ġwrongly": 31238,
  "Ġphotography": 16223,
  "Ġcouncil": 6745,
  "ĠDow": 21842,
  "Ġplutonium": 47901,
  "Ġstalls": 40308,
  "Ġweakest": 34968,
  "orm": 579,
[...]
